{"vocab_size": 10000, "end_of_word": "</w>", "merges": [[["e", "</w>"], "e</w>"], [["t", "h"], "th"], [[",", "</w>"], ",</w>"], [[".", "</w>"], ".</w>"], [["t", "</w>"], "t</w>"], [["s", "</w>"], "s</w>"], [["d", "</w>"], "d</w>"], [["e", "r"], "er"], [["o", "u"], "ou"], [["i", "n"], "in"], [["a", "n"], "an"], [["y", "</w>"], "y</w>"], [["o", "r"], "or"], [["o", "</w>"], "o</w>"], [["e", "n"], "en"], [["a", "r"], "ar"], [["o", "n"], "on"], [["l", "l"], "ll"], [["h", "a"], "ha"], [["th", "e</w>"], "the</w>"], [["f", "</w>"], "f</w>"], [["i", "s</w>"], "is</w>"], [["e", "s"], "es"], [["an", "d</w>"], "and</w>"], [["I", "</w>"], "I</w>"], [["ll", "</w>"], "ll</w>"], [["y", "ou"], "you"], [["er", "</w>"], "er</w>"], [["e", "a"], "ea"], [["t", "o</w>"], "to</w>"], [["o", "w"], "ow"], [["e", ",</w>"], "e,</w>"], [["o", "f</w>"], "of</w>"], [["in", "g"], "ing"], [["w", "i"], "wi"], [["r", "</w>"], "r</w>"], [["o", "m"], "om"], [["s", "t"], "st"], [["th", "</w>"], "th</w>"], [["a", "</w>"], "a</w>"], [["c", "h"], "ch"], [["in", "</w>"], "in</w>"], [["v", "e</w>"], "ve</w>"], [[";", "</w>"], ";</w>"], [["T", "h"], "Th"], [["or", "</w>"], "or</w>"], [["n", "o"], "no"], [["h", "i"], "hi"], [["m", "y</w>"], "my</w>"], [["e", "d</w>"], "ed</w>"], [["l", "i"], "li"], [["?", "</w>"], "?</w>"], [["a", "t</w>"], "at</w>"], [["ing", "</w>"], "ing</w>"], [["th", "e"], "the"], [["e", ".</w>"], "e.</w>"], [["s", ",</w>"], "s,</w>"], [["r", "i"], "ri"], [["g", "h"], "gh"], [["en", "</w>"], "en</w>"], [["r", "e"], "re"], [["A", "n"], "An"], [["o", "o"], "oo"], [["you", "</w>"], "you</w>"], [["t", "i"], "ti"], [["e", "ar"], "ear"], [["s", "t</w>"], "st</w>"], [["s", "e"], "se"], [["s", "h"], "sh"], [["d", ",</w>"], "d,</w>"], [["r", "a"], "ra"], [["on", "</w>"], "on</w>"], [["m", "a"], "ma"], [["m", "</w>"], "m</w>"], [["\u2019", "s</w>"], "\u2019s</w>"], [["e", "s</w>"], "es</w>"], [["l", "a"], "la"], [["no", "t</w>"], "not</w>"], [["th", "at</w>"], "that</w>"], [["An", "d</w>"], "And</w>"], [["t", ",</w>"], "t,</w>"], [["l", "d</w>"], "ld</w>"], [["ow", "</w>"], "ow</w>"], [["m", "e</w>"], "me</w>"], [["s", "i"], "si"], [["y", ",</w>"], "y,</w>"], [["an", "</w>"], "an</w>"], [["wi", "th</w>"], "with</w>"], [["!", "</w>"], "!</w>"], [["u", "n"], "un"], [["d", "i"], "di"], [["k", "</w>"], "k</w>"], [["u", "t</w>"], "ut</w>"], [["u", "r"], "ur"], [["a", "s</w>"], "as</w>"], [["ha", "t</w>"], "hat</w>"], [["ou", "</w>"], "ou</w>"], [["ch", "</w>"], "ch</w>"], [["h", "is</w>"], "his</w>"], [["a", "l"], "al"], [["i", "t</w>"], "it</w>"], [["e", "e"], "ee"], [["k", "e</w>"], "ke</w>"], [["b", "e"], "be"], [["b", "e</w>"], "be</w>"], [["er", "e</w>"], "ere</w>"], [["r", "o"], "ro"], [["you", "r</w>"], "your</w>"], [["s", "e</w>"], "se</w>"], [["c", "e</w>"], "ce</w>"], [["f", "or</w>"], "for</w>"], [["i", "t"], "it"], [["S", ".</w>"], "S.</w>"], [["l", "e"], "le"], [["l", "o"], "lo"], [["f", "or"], "for"], [["f", "a"], "fa"], [["ha", "ve</w>"], "have</w>"], [["h", "e</w>"], "he</w>"], [["s", ".</w>"], "s.</w>"], [["s", "a"], "sa"], [["c", "om"], "com"], [["n", "</w>"], "n</w>"], [["a", "t"], "at"], [["th", "is</w>"], "this</w>"], [["ou", "r</w>"], "our</w>"], [["E", "N"], "EN"], [["d", ".</w>"], "d.</w>"], [["b", "l"], "bl"], [["ou", "ld</w>"], "ould</w>"], [["r", "ea"], "rea"], [["w", "h"], "wh"], [["s", "ha"], "sha"], [["Th", "e</w>"], "The</w>"], [["s", "p"], "sp"], [["t", "er</w>"], "ter</w>"], [["A", "N"], "AN"], [["th", "ou</w>"], "thou</w>"], [["W", "h"], "Wh"], [["i", "r"], "ir"], [["wi", "ll</w>"], "will</w>"], [["e", "l"], "el"], [["t", "a"], "ta"], [["]", "</w>"], "]</w>"], [["E", "R"], "ER"], [["s", "u"], "su"], [["th", "er"], "ther"], [["th", "y</w>"], "thy</w>"], [["om", "</w>"], "om</w>"], [["A", "R"], "AR"], [["[", "_"], "[_"], [["o", "l"], "ol"], [["en", "t"], "ent"], [["i", "r</w>"], "ir</w>"], [["ar", "e</w>"], "are</w>"], [["e", "v"], "ev"], [["r", "u"], "ru"], [["I", "N"], "IN"], [["w", "or"], "wor"], [["O", ".</w>"], "O.</w>"], [["a", "ll</w>"], "all</w>"], [["\u2019", "d</w>"], "\u2019d</w>"], [["b", "ut</w>"], "but</w>"], [["i", "l"], "il"], [["T", "o</w>"], "To</w>"], [[".", "_"], "._"], [["U", "S.</w>"], "US.</w>"], [["e", "t</w>"], "et</w>"], [["k", "n"], "kn"], [["t", ".</w>"], "t.</w>"], [["y", ".</w>"], "y.</w>"], [["._", "]</w>"], "._]</w>"], [["h", "er</w>"], "her</w>"], [["oo", "d</w>"], "ood</w>"], [["p", "</w>"], "p</w>"], [[":", "</w>"], ":</w>"], [["S", "T"], "ST"], [["e", "ll"], "ell"], [["ear", "</w>"], "ear</w>"], [["d", "a"], "da"], [["i", "gh"], "igh"], [["hi", "m</w>"], "him</w>"], [["th", "er</w>"], "ther</w>"], [["ou", "n"], "oun"], [["sha", "ll</w>"], "shall</w>"], [["d", "e"], "de"], [["m", "u"], "mu"], [["m", "e"], "me"], [["s", "o</w>"], "so</w>"], [["E", ".</w>"], "E.</w>"], [["w", "a"], "wa"], [["r", "es"], "res"], [["m", "or"], "mor"], [["l", "y</w>"], "ly</w>"], [["c", "on"], "con"], [["t", "er"], "ter"], [["d", "o"], "do"], [["b", "y</w>"], "by</w>"], [["O", "N"], "ON"], [["d", "o</w>"], "do</w>"], [["c", "k"], "ck"], [["m", "o"], "mo"], [["c", "a"], "ca"], [["d", "s</w>"], "ds</w>"], [["A", ".</w>"], "A.</w>"], [["T", "hat</w>"], "That</w>"], [["ou", "r"], "our"], [["se", "l"], "sel"], [["E", "n"], "En"], [["ou", "gh"], "ough"], [["l", "or"], "lor"], [["r", "om</w>"], "rom</w>"], [["i", "s"], "is"], [["\u2019", "</w>"], "\u2019</w>"], [["q", "u"], "qu"], [["v", "er"], "ver"], [["u", "s</w>"], "us</w>"], [["l", "</w>"], "l</w>"], [["es", ",</w>"], "es,</w>"], [["p", "a"], "pa"], [["m", "an"], "man"], [["hi", "m"], "him"], [["B", "ut</w>"], "But</w>"], [["g", "a"], "ga"], [["w", "e</w>"], "we</w>"], [["t", "e"], "te"], [["O", "R"], "OR"], [["p", "o"], "po"], [["n", "o</w>"], "no</w>"], [["\u2019", "ll</w>"], "\u2019ll</w>"], [["A", "</w>"], "A</w>"], [["on", "e</w>"], "one</w>"], [["l", "e</w>"], "le</w>"], [["on", "g"], "ong"], [["b", "o"], "bo"], [["o", ",</w>"], "o,</w>"], [["f", "rom</w>"], "from</w>"], [["f", "f"], "ff"], [["en", "t</w>"], "ent</w>"], [["c", "e"], "ce"], [["w", "hi"], "whi"], [["es", "s</w>"], "ess</w>"], [["es", "t</w>"], "est</w>"], [["h", "er"], "her"], [["v", "i"], "vi"], [["l", "ea"], "lea"], [["A", "L"], "AL"], [["E", "x"], "Ex"], [["O", "L"], "OL"], [["u", "p"], "up"], [["En", "ter</w>"], "Enter</w>"], [["t", "s</w>"], "ts</w>"], [["w", "as</w>"], "was</w>"], [["D", ".</w>"], "D.</w>"], [["u", "s"], "us"], [["r", "an"], "ran"], [["the", "ir</w>"], "their</w>"], [["h", "ea"], "hea"], [["w", "hat</w>"], "what</w>"], [["a", "m</w>"], "am</w>"], [["g", "ood</w>"], "good</w>"], [["w", "ould</w>"], "would</w>"], [["h", "ear"], "hear"], [["m", "p"], "mp"], [["n", "e"], "ne"], [["g", "i"], "gi"], [["t", "o"], "to"], [["L", "E"], "LE"], [["c", "e,</w>"], "ce,</w>"], [["om", "e</w>"], "ome</w>"], [["m", "in"], "min"], [["th", "in"], "thin"], [["m", "e,</w>"], "me,</w>"], [["p", "ar"], "par"], [["the", "y</w>"], "they</w>"], [["g", "e</w>"], "ge</w>"], [["si", "r"], "sir"], [["[_", "Ex"], "[_Ex"], [["W", "i"], "Wi"], [["d", "e</w>"], "de</w>"], [["the", "e</w>"], "thee</w>"], [["f", "u"], "fu"], [["sh", "e</w>"], "she</w>"], [["W", "hat</w>"], "What</w>"], [["s", "w"], "sw"], [["i", "f</w>"], "if</w>"], [["F", "or</w>"], "For</w>"], [["e", "c"], "ec"], [["T", "H"], "TH"], [["I", "\u2019ll</w>"], "I\u2019ll</w>"], [["t", "ru"], "tru"], [["ou", "s</w>"], "ous</w>"], [["li", "ke</w>"], "like</w>"], [["p", "ro"], "pro"], [["ou", "t</w>"], "out</w>"], [["w", "e"], "we"], [["en", "d"], "end"], [["e", "\u2019s</w>"], "e\u2019s</w>"], [["I", "f</w>"], "If</w>"], [["E", "S"], "ES"], [["mor", "e</w>"], "more</w>"], [["g", "o"], "go"], [["ow", "n</w>"], "own</w>"], [["M", "y</w>"], "My</w>"], [["h", "o"], "ho"], [["E", "L"], "EL"], [["IN", "G"], "ING"], [["d", "ea"], "dea"], [["lo", "v"], "lov"], [["ev", "er</w>"], "ever</w>"], [["bl", "e</w>"], "ble</w>"], [["ha", "th</w>"], "hath</w>"], [["on", ",</w>"], "on,</w>"], [["c", "k</w>"], "ck</w>"], [["C", "H"], "CH"], [["b", "a"], "ba"], [["ow", ",</w>"], "ow,</w>"], [["s", "o"], "so"], [["c", "i"], "ci"], [["p", "er"], "per"], [["Y", ".</w>"], "Y.</w>"], [["en", ",</w>"], "en,</w>"], [["w", "ar"], "war"], [["e", "y"], "ey"], [["T", ".</w>"], "T.</w>"], [["Y", "ou</w>"], "You</w>"], [["I", "O.</w>"], "IO.</w>"], [["th", ",</w>"], "th,</w>"], [["you", ",</w>"], "you,</w>"], [["ER", ".</w>"], "ER.</w>"], [["al", "</w>"], "al</w>"], [["H", "e</w>"], "He</w>"], [["f", "i"], "fi"], [["m", "i"], "mi"], [["er", ",</w>"], "er,</w>"], [["A", "s</w>"], "As</w>"], [["M", "a"], "Ma"], [["th", "an</w>"], "than</w>"], [["t", "t"], "tt"], [["ma", "ke</w>"], "make</w>"], [["an", "d"], "and"], [["w", "ere</w>"], "were</w>"], [["p", "p"], "pp"], [["H", "a"], "Ha"], [["ing", ",</w>"], "ing,</w>"], [["en", "d</w>"], "end</w>"], [["R", "O"], "RO"], [["K", "ING"], "KING"], [["C", "a"], "Ca"], [["O", "</w>"], "O</w>"], [["sh", "ould</w>"], "should</w>"], [["I", "R"], "IR"], [["es", ".</w>"], "es.</w>"], [["m", "b"], "mb"], [["for", "e</w>"], "fore</w>"], [["w", "</w>"], "w</w>"], [["whi", "ch</w>"], "which</w>"], [["p", "la"], "pla"], [["up", "on</w>"], "upon</w>"], [["com", "e</w>"], "come</w>"], [["ma", "y</w>"], "may</w>"], [["le", "t</w>"], "let</w>"], [["e", "x"], "ex"], [["h", "on"], "hon"], [["c", "e.</w>"], "ce.</w>"], [["ou", "s"], "ous"], [["mu", "st</w>"], "must</w>"], [["kn", "ow</w>"], "know</w>"], [["m", "an</w>"], "man</w>"], [["ti", "on</w>"], "tion</w>"], [["n", "a"], "na"], [["ur", "e</w>"], "ure</w>"], [["the", "m</w>"], "them</w>"], [["di", "d</w>"], "did</w>"], [["t", "y</w>"], "ty</w>"], [["lo", "ve</w>"], "love</w>"], [["g", "u"], "gu"], [["g", "e"], "ge"], [["s", "c"], "sc"], [["m", "e.</w>"], "me.</w>"], [["ga", "in"], "gain"], [["es", "e</w>"], "ese</w>"], [["I", "US.</w>"], "IUS.</w>"], [["o", "se</w>"], "ose</w>"], [["su", "ch</w>"], "such</w>"], [["on", ".</w>"], "on.</w>"], [["n", "ow</w>"], "now</w>"], [["i", "d</w>"], "id</w>"], [["I", ".</w>"], "I.</w>"], [["igh", "t</w>"], "ight</w>"], [["ow", "n"], "own"], [["ha", "d</w>"], "had</w>"], [["ough", "</w>"], "ough</w>"], [["r", "y</w>"], "ry</w>"], [["d", "es"], "des"], [["W", "hi"], "Whi"], [["w", "ell"], "well"], [["wh", "en</w>"], "when</w>"], [["\u2019", "t"], "\u2019t"], [["sh", "</w>"], "sh</w>"], [["m", ",</w>"], "m,</w>"], [["sp", "ea"], "spea"], [["Th", "is</w>"], "This</w>"], [["c", "an"], "can"], [["e", "?</w>"], "e?</w>"], [["st", "a"], "sta"], [["e", ";</w>"], "e;</w>"], [["s", "ome</w>"], "some</w>"], [["a", "d"], "ad"], [["f", "ri"], "fri"], [["A", "M"], "AM"], [["g", "ra"], "gra"], [["mo", "st</w>"], "most</w>"], [["I", "n</w>"], "In</w>"], [["p", "ra"], "pra"], [["sel", "f</w>"], "self</w>"], [["H", "ow</w>"], "How</w>"], [["T", "I"], "TI"], [["u", "gh"], "ugh"], [["r", "in"], "rin"], [["er", ".</w>"], "er.</w>"], [["se", "e</w>"], "see</w>"], [["er", "s</w>"], "ers</w>"], [["st", "i"], "sti"], [["m", "ar"], "mar"], [["a", "c"], "ac"], [["l", "oo"], "loo"], [["t", "e</w>"], "te</w>"], [["g", "rea"], "grea"], [["e", "t"], "et"], [["in", "d</w>"], "ind</w>"], [["E", "</w>"], "E</w>"], [["k", ",</w>"], "k,</w>"], [["an", "g"], "ang"], [["e", "un"], "eun"], [["p", "ri"], "pri"], [["c", "o"], "co"], [["s", ";</w>"], "s;</w>"], [["m", "on"], "mon"], [["ing", ".</w>"], "ing.</w>"], [["\u2014", "</w>"], "\u2014</w>"], [["t", "ed</w>"], "ted</w>"], [["th", "ese</w>"], "these</w>"], [["d", ";</w>"], "d;</w>"], [["ee", "t</w>"], "eet</w>"], [["er", "e"], "ere"], [["gi", "ve</w>"], "give</w>"], [["li", "f"], "lif"], [["O", ",</w>"], "O,</w>"], [["R", "I"], "RI"], [["ta", "ke</w>"], "take</w>"], [["b", "ro"], "bro"], [["I", "L"], "IL"], [["en", "ce</w>"], "ence</w>"], [["d", "u"], "du"], [["hea", "v"], "heav"], [["sa", "y</w>"], "say</w>"], [["c", "an</w>"], "can</w>"], [["sir", ",</w>"], "sir,</w>"], [["c", "u"], "cu"], [["Wi", "th</w>"], "With</w>"], [["th", "ing</w>"], "thing</w>"], [["y", "et</w>"], "yet</w>"], [["th", "en</w>"], "then</w>"], [["O", "f</w>"], "Of</w>"], [["a", "gain"], "again"], [["h", "ow</w>"], "how</w>"], [["v", "es</w>"], "ves</w>"], [["sel", "f"], "self"], [["I", "t</w>"], "It</w>"], [["g", "ent"], "gent"], [["d", "y</w>"], "dy</w>"], [["s", "er"], "ser"], [["it", ".</w>"], "it.</w>"], [["[_Ex", "eun"], "[_Exeun"], [["Th", "ou</w>"], "Thou</w>"], [["\u2019", "st</w>"], "\u2019st</w>"], [["S", "o</w>"], "So</w>"], [["b", "r"], "br"], [["h", "ere</w>"], "here</w>"], [["we", "ll</w>"], "well</w>"], [["b", "u"], "bu"], [["c", "en"], "cen"], [["f", "o"], "fo"], [["th", "ere</w>"], "there</w>"], [["fu", "l</w>"], "ful</w>"], [["t", "w"], "tw"], [["be", "t"], "bet"], [["G", "o"], "Go"], [["o", "ff"], "off"], [["lor", "d,</w>"], "lord,</w>"], [["L", "O"], "LO"], [["n", "ever</w>"], "never</w>"], [["b", "rea"], "brea"], [["a", "ll"], "all"], [["o", "p"], "op"], [["g", "o</w>"], "go</w>"], [["ee", "p</w>"], "eep</w>"], [["f", "ir"], "fir"], [["I", "C"], "IC"], [["an", "t</w>"], "ant</w>"], [["U", "C"], "UC"], [["S", "C"], "SC"], [["t", "u"], "tu"], [["f", "oo"], "foo"], [["C", "om"], "Com"], [["I", "A.</w>"], "IA.</w>"], [["t", "\u2019s</w>"], "t\u2019s</w>"], [["d", "er"], "der"], [["a", "s"], "as"], [["es", "t"], "est"], [["do", "th</w>"], "doth</w>"], [["an", "d,</w>"], "and,</w>"], [["A", "T"], "AT"], [["th", "\u2019</w>"], "th\u2019</w>"], [["k", "s</w>"], "ks</w>"], [["f", "l"], "fl"], [["ong", "</w>"], "ong</w>"], [["c", "oun"], "coun"], [["L", "or"], "Lor"], [["Whi", "ch</w>"], "Which</w>"], [["B", "y</w>"], "By</w>"], [["M", "ar"], "Mar"], [["a", "b"], "ab"], [["ou", "l"], "oul"], [["ther", ",</w>"], "ther,</w>"], [["I", "s</w>"], "Is</w>"], [["t", "ur"], "tur"], [["d", "er</w>"], "der</w>"], [["Wh", "en</w>"], "When</w>"], [["e", "y</w>"], "ey</w>"], [["ar", "</w>"], "ar</w>"], [["you", ".</w>"], "you.</w>"], [["es", "s"], "ess"], [["AR", "D.</w>"], "ARD.</w>"], [["AN", ".</w>"], "AN.</w>"], [["in", ",</w>"], "in,</w>"], [["d", "s,</w>"], "ds,</w>"], [["KING", "</w>"], "KING</w>"], [["mu", "ch</w>"], "much</w>"], [["i", "g"], "ig"], [["d", "?</w>"], "d?</w>"], [["\u2019", "T"], "\u2019T"], [["L", "et</w>"], "Let</w>"], [["ar", "t</w>"], "art</w>"], [["B", "e"], "Be"], [["S", "E"], "SE"], [["thin", "k</w>"], "think</w>"], [["min", "e</w>"], "mine</w>"], [["A", "C"], "AC"], [["s", "hi"], "shi"], [["o", "f"], "of"], [["K", ".</w>"], "K.</w>"], [["o", "ther</w>"], "other</w>"], [["u", "p</w>"], "up</w>"], [["ver", "y</w>"], "very</w>"], [["te", "ll</w>"], "tell</w>"], [["ch", "ar"], "char"], [["p", "lea"], "plea"], [["p", "i"], "pi"], [["u", "s,</w>"], "us,</w>"], [["se", "e"], "see"], [["s", "on"], "son"], [["him", ".</w>"], "him.</w>"], [["L", "A"], "LA"], [["ee", "p"], "eep"], [["D", "</w>"], "D</w>"], [["SC", "EN"], "SCEN"], [["F", "F"], "FF"], [["\u201d", "</w>"], "\u201d</w>"], [["c", "l"], "cl"], [["him", ",</w>"], "him,</w>"], [["ti", "me</w>"], "time</w>"], [["st", ",</w>"], "st,</w>"], [["p", "re"], "pre"], [["p", "res"], "pres"], [["th", ".</w>"], "th.</w>"], [["m", "en"], "men"], [["a", "wa"], "awa"], [["h", "e"], "he"], [["h", "ar"], "har"], [["an", "y</w>"], "any</w>"], [["N", "o"], "No"], [["oun", "d</w>"], "ound</w>"], [["b", "ea"], "bea"], [["the", "e,</w>"], "thee,</w>"], [["g", "</w>"], "g</w>"], [["W", "e</w>"], "We</w>"], [["SCEN", "E</w>"], "SCENE</w>"], [["grea", "t</w>"], "great</w>"], [["th", "i"], "thi"], [["P", "H"], "PH"], [["ST", "</w>"], "ST</w>"], [["to", "o</w>"], "too</w>"], [["ough", "t</w>"], "ought</w>"], [["w", "om"], "wom"], [["ow", "s</w>"], "ows</w>"], [["D", "u"], "Du"], [["m", ".</w>"], "m.</w>"], [["E", "D"], "ED"], [["i", "t,</w>"], "it,</w>"], [["t", "ri"], "tri"], [["j", "u"], "ju"], [["C", "A"], "CA"], [["at", "e</w>"], "ate</w>"], [["F", "IR"], "FIR"], [["FIR", "ST</w>"], "FIRST</w>"], [["t", "ra"], "tra"], [["wi", "th"], "with"], [["ti", "on"], "tion"], [["c", "ha"], "cha"], [["st", "er</w>"], "ster</w>"], [["t", "ter"], "tter"], [["t", "un"], "tun"], [["v", "e,</w>"], "ve,</w>"], [["A", "r"], "Ar"], [["s", "on</w>"], "son</w>"], [["W", "ha"], "Wha"], [["Wh", "y,</w>"], "Why,</w>"], [["\u2019t", "is</w>"], "\u2019tis</w>"], [["m", "er"], "mer"], [["s", "e,</w>"], "se,</w>"], [["i", "d"], "id"], [["K", "ing</w>"], "King</w>"], [["u", "se</w>"], "use</w>"], [["y", ";</w>"], "y;</w>"], [["ma", "de</w>"], "made</w>"], [["ON", ".</w>"], "ON.</w>"], [["p", "ea"], "pea"], [["U", "R"], "UR"], [["gh", "t</w>"], "ght</w>"], [["t", "or"], "tor"], [["D", "U"], "DU"], [["S", "cen"], "Scen"], [["m", "en</w>"], "men</w>"], [["Scen", "e</w>"], "Scene</w>"], [["ing", "s</w>"], "ings</w>"], [["I", "I.</w>"], "II.</w>"], [["an", "ce</w>"], "ance</w>"], [["O", "r</w>"], "Or</w>"], [["in", "d"], "ind"], [["t", ";</w>"], "t;</w>"], [["can", "not</w>"], "cannot</w>"], [["Q", "U"], "QU"], [["s", "wor"], "swor"], [["A", "G"], "AG"], [["e", "d,</w>"], "ed,</w>"], [["y", "s</w>"], "ys</w>"], [["ev", "er"], "ever"], [["t", "oo"], "too"], [["\u2019T", "is</w>"], "\u2019Tis</w>"], [["a", "f"], "af"], [["l", "t</w>"], "lt</w>"], [["spea", "k</w>"], "speak</w>"], [["d", "r"], "dr"], [["AN", "T"], "ANT"], [["t", "._]</w>"], "t._]</w>"], [["s", "ea"], "sea"], [["Y", "our</w>"], "Your</w>"], [[".", "]</w>"], ".]</w>"], [["h", "ear</w>"], "hear</w>"], [["i", "ll"], "ill"], [["wh", "ere</w>"], "where</w>"], [["p", "r"], "pr"], [["EL", "L"], "ELL"], [["l", "ess</w>"], "less</w>"], [["k", "ing</w>"], "king</w>"], [["or", "r"], "orr"], [["n", "or</w>"], "nor</w>"], [["E", "M"], "EM"], [["c", "r"], "cr"], [["in", "e</w>"], "ine</w>"], [["k", "es</w>"], "kes</w>"], [["wi", "ll"], "will"], [["c", "our"], "cour"], [["e", "!</w>"], "e!</w>"], [["be", "en</w>"], "been</w>"], [["j", "o"], "jo"], [["b", "ra"], "bra"], [["ES", "S"], "ESS"], [["ar", "d"], "ard"], [["fa", "ir</w>"], "fair</w>"], [["s", "l"], "sl"], [["wi", "f"], "wif"], [["i", "ll</w>"], "ill</w>"], [["Com", "e,</w>"], "Come,</w>"], [["v", "en</w>"], "ven</w>"], [["\u2019", "d,</w>"], "\u2019d,</w>"], [["on", "e,</w>"], "one,</w>"], [["o", "ld</w>"], "old</w>"], [["t", "r"], "tr"], [["g", "e,</w>"], "ge,</w>"], [["s", "?</w>"], "s?</w>"], [["ear", "s</w>"], "ears</w>"], [["il", "</w>"], "il</w>"], [["n", "igh"], "nigh"], [["H", "is</w>"], "His</w>"], [["Th", "ey</w>"], "They</w>"], [["Th", "en</w>"], "Then</w>"], [["C", "E.</w>"], "CE.</w>"], [["sw", "eet</w>"], "sweet</w>"], [["S", "ha"], "Sha"], [["p", "ur"], "pur"], [["E", "S.</w>"], "ES.</w>"], [["A", "y,</w>"], "Ay,</w>"], [["EN", ".</w>"], "EN.</w>"], [["Wh", "o</w>"], "Who</w>"], [["om", "e"], "ome"], [["p", "e"], "pe"], [["ck", ",</w>"], "ck,</w>"], [["y", "?</w>"], "y?</w>"], [["N", "a"], "Na"], [["th", "r"], "thr"], [["m", "ent"], "ment"], [["tw", "o</w>"], "two</w>"], [["_", ".]</w>"], "_.]</w>"], [["C", "ON"], "CON"], [["n", "ess</w>"], "ness</w>"], [["li", "v"], "liv"], [["\u2019", "er</w>"], "\u2019er</w>"], [["i", "ve</w>"], "ive</w>"], [["t", "on"], "ton"], [["bl", "oo"], "bloo"], [["you", "r"], "your"], [["p", "u"], "pu"], [["v", "en"], "ven"], [["h", "ol"], "hol"], [["di", "s"], "dis"], [["fo", "ll"], "foll"], [["f", "e"], "fe"], [["ch", ",</w>"], "ch,</w>"], [["v", "a"], "va"], [["n", "i"], "ni"], [["no", "ble</w>"], "noble</w>"], [["S", "a"], "Sa"], [["st", "er"], "ster"], [["u", "s.</w>"], "us.</w>"], [["t", "en"], "ten"], [["Lor", "d</w>"], "Lord</w>"], [["be", "ing</w>"], "being</w>"], [["st", "r"], "str"], [["ow", ".</w>"], "ow.</w>"], [["c", "ar"], "car"], [["g", "r"], "gr"], [["t", "s,</w>"], "ts,</w>"], [["m", "y"], "my"], [["v", "o"], "vo"], [["s", "!</w>"], "s!</w>"], [["h", "or"], "hor"], [["Wh", "ere</w>"], "Where</w>"], [["s", "ur"], "sur"], [["s", "si"], "ssi"], [["l", "u"], "lu"], [["c", "ould</w>"], "could</w>"], [["v", "an"], "van"], [["no", "t,</w>"], "not,</w>"], [["g", "ri"], "gri"], [["ell", ",</w>"], "ell,</w>"], [["S", "he</w>"], "She</w>"], [["s", "in"], "sin"], [["U", "S"], "US"], [["com", "es</w>"], "comes</w>"], [["M", "AR"], "MAR"], [["\u2019", "t</w>"], "\u2019t</w>"], [["ther", ".</w>"], "ther.</w>"], [["da", "y</w>"], "day</w>"], [["F", "</w>"], "F</w>"], [["th", "at"], "that"], [["in", "to</w>"], "into</w>"], [["re", "e</w>"], "ree</w>"], [["po", "or</w>"], "poor</w>"], [["c", "ur"], "cur"], [["it", "y</w>"], "ity</w>"], [["com", "p"], "comp"], [["AN", "D"], "AND"], [["m", "s</w>"], "ms</w>"], [["hear", "t</w>"], "heart</w>"], [["b", "ur"], "bur"], [["R", "o"], "Ro"], [["in", ".</w>"], "in.</w>"], [["T", "R"], "TR"], [["FF", ".</w>"], "FF.</w>"], [["N", "o,</w>"], "No,</w>"], [["B", "ER"], "BER"], [["M", "I"], "MI"], [["sp", "i"], "spi"], [["c", "es"], "ces"], [["m", "ent</w>"], "ment</w>"], [["ong", "u"], "ongu"], [["m", "is"], "mis"], [["F", "or"], "For"], [["ir", ",</w>"], "ir,</w>"], [["G", "ood</w>"], "Good</w>"], [["wh", "o</w>"], "who</w>"], [["st", "res"], "stres"], [["[_Ex", "it"], "[_Exit"], [["t", "?</w>"], "t?</w>"], [["P", "a"], "Pa"], [["en", "e"], "ene"], [["be", "fore</w>"], "before</w>"], [["t", "ongu"], "tongu"], [["t", "al"], "tal"], [["on", "e.</w>"], "one.</w>"], [["n", "ow,</w>"], "now,</w>"], [["gent", "le"], "gentle"], [["li", "e"], "lie"], [["Go", "d</w>"], "God</w>"], [["d", "st</w>"], "dst</w>"], [["ch", "i"], "chi"], [["g", "ar"], "gar"], [["RI", "CH"], "RICH"], [["da", "ugh"], "daugh"], [["an", "i"], "ani"], [["loo", "k</w>"], "look</w>"], [["ha", "st</w>"], "hast</w>"], [["[_Exeun", "t._]</w>"], "[_Exeunt._]</w>"], [["el", "y</w>"], "ely</w>"], [["c", "or"], "cor"], [["li", "tt"], "litt"], [["ther", "e"], "there"], [["re", "e"], "ree"], [["n", "at"], "nat"], [["EN", "T"], "ENT"], [["w", "r"], "wr"], [["k", ".</w>"], "k.</w>"], [["man", "y</w>"], "many</w>"], [["se", "s</w>"], "ses</w>"], [["lea", "ve</w>"], "leave</w>"], [["you", "n"], "youn"], [["B", "e</w>"], "Be</w>"], [["la", "d"], "lad"], [["OR", "D.</w>"], "ORD.</w>"], [["u", "r</w>"], "ur</w>"], [["ST", "A"], "STA"], [["D", "o</w>"], "Do</w>"], [["s", "ure</w>"], "sure</w>"], [["y", "!</w>"], "y!</w>"], [["U", "n"], "Un"], [["O", "F</w>"], "OF</w>"], [["t", "ing</w>"], "ting</w>"], [["H", "AM"], "HAM"], [["f", "t</w>"], "ft</w>"], [["U", "L"], "UL"], [["a", "p"], "ap"], [["h", "u"], "hu"], [["ti", "ll</w>"], "till</w>"], [["En", "g"], "Eng"], [["H", "er"], "Her"], [["SE", "CON"], "SECON"], [["SECON", "D</w>"], "SECOND</w>"], [["Na", "y,</w>"], "Nay,</w>"], [["S", "ir</w>"], "Sir</w>"], [["N", "ow</w>"], "Now</w>"], [["e", "d.</w>"], "ed.</w>"], [["s", "s"], "ss"], [["me", "an"], "mean"], [["[_Exit", "._]</w>"], "[_Exit._]</w>"], [["RICH", "ARD.</w>"], "RICHARD.</w>"], [["No", "t</w>"], "Not</w>"], [["U", "T"], "UT"], [["en", "ce,</w>"], "ence,</w>"], [["th", "ose</w>"], "those</w>"], [["en", "g"], "eng"], [["th", "an"], "than"], [["th", "ough</w>"], "though</w>"], [["f", "ind</w>"], "find</w>"], [["J", "o"], "Jo"], [["ou", "l</w>"], "oul</w>"], [["LE", "T.</w>"], "LET.</w>"], [["bet", "ter</w>"], "better</w>"], [["the", "e.</w>"], "thee.</w>"], [["RO", "S"], "ROS"], [["es", "s,</w>"], "ess,</w>"], [["be", "g"], "beg"], [["man", ",</w>"], "man,</w>"], [["IN", "E.</w>"], "INE.</w>"], [["n", ",</w>"], "n,</w>"], [["d", "ev"], "dev"], [["p", "ow"], "pow"], [["s", "e.</w>"], "se.</w>"], [["se", "t</w>"], "set</w>"], [["ho", "ld</w>"], "hold</w>"], [["QU", "E"], "QUE"], [["Sha", "ll</w>"], "Shall</w>"], [["d", "ra"], "dra"], [["g", "oo"], "goo"], [["d", "!</w>"], "d!</w>"], [["Du", "ke</w>"], "Duke</w>"], [["b", "ear</w>"], "bear</w>"], [["p", "e</w>"], "pe</w>"], [["Wh", "y</w>"], "Why</w>"], [["st", "and</w>"], "stand</w>"], [["N", ".</w>"], "N.</w>"], [["Wi", "ll</w>"], "Will</w>"], [["l", "ou"], "lou"], [["a", "pp"], "app"], [["fri", "end"], "friend"], [["Th", "ere</w>"], "There</w>"], [["well", ",</w>"], "well,</w>"], [["l", "y,</w>"], "ly,</w>"], [["s", "la"], "sla"], [["F", "ran"], "Fran"], [["KING", ".</w>"], "KING.</w>"], [["N", "o</w>"], "No</w>"], [["AR", ".</w>"], "AR.</w>"], [["en", ".</w>"], "en.</w>"], [["b", "es"], "bes"], [["l", "an"], "lan"], [["pra", "y</w>"], "pray</w>"], [["F", "AL"], "FAL"], [["FAL", "STA"], "FALSTA"], [["p", "h"], "ph"], [["FALSTA", "FF.</w>"], "FALSTAFF.</w>"], [["qu", "i"], "qui"], [["par", "t</w>"], "part</w>"], [["s", "s</w>"], "ss</w>"], [["M", "AN.</w>"], "MAN.</w>"], [["Ca", "es"], "Caes"], [["ever", "y</w>"], "every</w>"], [["an", "sw"], "answ"], [["w", "ea"], "wea"], [["ll", "a"], "lla"], [["p", "ut</w>"], "put</w>"], [["s", "en"], "sen"], [["DU", "K"], "DUK"], [["H", "ere</w>"], "Here</w>"], [["m", "ight</w>"], "might</w>"], [["i", "c"], "ic"], [["B", "E"], "BE"], [["y", "\u2019s</w>"], "y\u2019s</w>"], [["d", "ing</w>"], "ding</w>"], [["Ha", "ve</w>"], "Have</w>"], [["Q", "u"], "Qu"], [["f", "ear"], "fear"], [["again", "st</w>"], "against</w>"], [["E", "T.</w>"], "ET.</w>"], [["s", "ol"], "sol"], [["ter", ",</w>"], "ter,</w>"], [["W", "ell,</w>"], "Well,</w>"], [["L", "UC"], "LUC"], [["v", "ir"], "vir"], [["u", "l"], "ul"], [["I", "V"], "IV"], [["P", "E"], "PE"], [["wa", "y</w>"], "way</w>"], [["ther", "\u2019s</w>"], "ther\u2019s</w>"], [["f", "ell"], "fell"], [["ey", "es</w>"], "eyes</w>"], [["s", "o,</w>"], "so,</w>"], [["k", "e,</w>"], "ke,</w>"], [["lor", "d.</w>"], "lord.</w>"], [["tru", "e</w>"], "true</w>"], [["R", "om"], "Rom"], [["I", "S"], "IS"], [["ne", "w"], "new"], [["ti", "on,</w>"], "tion,</w>"], [["B", "u"], "Bu"], [["LO", "W"], "LOW"], [["c", "all</w>"], "call</w>"], [["r", "y,</w>"], "ry,</w>"], [["i", "m"], "im"], [["TH", ".</w>"], "TH.</w>"], [["Th", "y</w>"], "Thy</w>"], [["for", "tun"], "fortun"], [["k", "ing"], "king"], [["Th", "an</w>"], "Than</w>"], [["lif", "e</w>"], "life</w>"], [["well", ".</w>"], "well.</w>"], [["[_Exeun", "t</w>"], "[_Exeunt</w>"], [["p", "rin"], "prin"], [["c", "lo"], "clo"], [["ec", "t</w>"], "ect</w>"], [["st", "ra"], "stra"], [["[_Ex", "it</w>"], "[_Exit</w>"], [["B", "A"], "BA"], [["litt", "le</w>"], "little</w>"], [["w", "el"], "wel"], [["bo", "th</w>"], "both</w>"], [["th", "us</w>"], "thus</w>"], [["fa", "ther</w>"], "father</w>"], [["sp", "o"], "spo"], [["lov", "e,</w>"], "love,</w>"], [["d", "\u2019s</w>"], "d\u2019s</w>"], [["wh", "ose</w>"], "whose</w>"], [["or", "e</w>"], "ore</w>"], [["k", "eep</w>"], "keep</w>"], [["l", ",</w>"], "l,</w>"], [["ANT", "ON"], "ANTON"], [["P", "R"], "PR"], [["ar", "e"], "are"], [["[_", "A"], "[_A"], [["er", "s,</w>"], "ers,</w>"], [["st", ".</w>"], "st.</w>"], [["I", "D"], "ID"], [["i", "se</w>"], "ise</w>"], [["fa", "i"], "fai"], [["hi", "gh"], "high"], [["s", "ed</w>"], "sed</w>"], [["D", "o"], "Do"], [["R", "ESS"], "RESS"], [["in", "s</w>"], "ins</w>"], [["ti", "m"], "tim"], [["k", "e"], "ke"], [["ar", "d</w>"], "ard</w>"], [["d", "ed</w>"], "ded</w>"], [["con", "t"], "cont"], [["L", "i"], "Li"], [["Y", "et</w>"], "Yet</w>"], [["hon", "our"], "honour"], [["Wha", "t,</w>"], "What,</w>"], [["l", "ar"], "lar"], [["li", "gh"], "ligh"], [["w", "at"], "wat"], [["E", "ST"], "EST"], [["ca", "use</w>"], "cause</w>"], [["e", "f"], "ef"], [["ca", "ll"], "call"], [["com", "m"], "comm"], [["f", "ear</w>"], "fear</w>"], [["R", "Y.</w>"], "RY.</w>"], [["T", "</w>"], "T</w>"], [["hon", "our</w>"], "honour</w>"], [["O", "ur</w>"], "Our</w>"], [["ta", "in</w>"], "tain</w>"], [["h", "us"], "hus"], [["te", "mp"], "temp"], [["O", "ST"], "OST"], [["PR", "IN"], "PRIN"], [["v", "ing</w>"], "ving</w>"], [["d", "en"], "den"], [["self", ",</w>"], "self,</w>"], [["v", "er</w>"], "ver</w>"], [["A", "ll</w>"], "All</w>"], [["v", "ed</w>"], "ved</w>"], [["p", "s</w>"], "ps</w>"], [["n", "ing</w>"], "ning</w>"], [["th", "ough"], "though"], [["spi", "ri"], "spiri"], [["g", "e.</w>"], "ge.</w>"], [["C", "I"], "CI"], [["f", "al"], "fal"], [["th", "en,</w>"], "then,</w>"], [["U", "N"], "UN"], [["t", "!</w>"], "t!</w>"], [["b", "la"], "bla"], [["fri", "en"], "frien"], [["d", "ou"], "dou"], [["b", "ri"], "bri"], [["h", "and</w>"], "hand</w>"], [["su", "b"], "sub"], [["p", "or"], "por"], [["l", "e,</w>"], "le,</w>"], [["es", ";</w>"], "es;</w>"], [["no", "thing</w>"], "nothing</w>"], [["R", "e"], "Re"], [["h", "el"], "hel"], [["at", "t"], "att"], [["An", "ton"], "Anton"], [["br", "ing</w>"], "bring</w>"], [["H", "EN"], "HEN"], [["e", "ll</w>"], "ell</w>"], [["F", "rom</w>"], "From</w>"], [["hus", "b"], "husb"], [["sti", "ll</w>"], "still</w>"], [["h", "ou"], "hou"], [["d", "own</w>"], "down</w>"], [["st", "ran"], "stran"], [["youn", "g</w>"], "young</w>"], [["na", "me</w>"], "name</w>"], [["com", "e,</w>"], "come,</w>"], [["R", "i"], "Ri"], [["O", "M"], "OM"], [["P", "ro"], "Pro"], [["fu", "ll</w>"], "full</w>"], [["oo", "k</w>"], "ook</w>"], [["in", "t</w>"], "int</w>"], [["h", "and"], "hand"], [["sir", ".</w>"], "sir.</w>"], [["un", "</w>"], "un</w>"], [["I", "n"], "In"], [["or", ",</w>"], "or,</w>"], [["ES", "S.</w>"], "ESS.</w>"], [["li", "ve</w>"], "live</w>"], [["t", "ch"], "tch"], [["wor", "l"], "worl"], [["h", "an"], "han"], [["LE", "S.</w>"], "LES.</w>"], [["b", "ear"], "bear"], [["c", "re"], "cre"], [["t", "ter</w>"], "tter</w>"], [["ar", "m"], "arm"], [["[_A", "si"], "[_Asi"], [["OR", ".</w>"], "OR.</w>"], [["B", "R"], "BR"], [["L", "u"], "Lu"], [["N", "or</w>"], "Nor</w>"], [["i", "mp"], "imp"], [["un", "to</w>"], "unto</w>"], [["t", "s.</w>"], "ts.</w>"], [["b", "or"], "bor"], [["AC", "T</w>"], "ACT</w>"], [["st", "an"], "stan"], [["bl", "ood</w>"], "blood</w>"], [["b", "est</w>"], "best</w>"], [["ha", "s</w>"], "has</w>"], [["ti", "on.</w>"], "tion.</w>"], [["th", "ou"], "thou"], [["t", "ly</w>"], "tly</w>"], [["o", "\u2019</w>"], "o\u2019</w>"], [["An", "d,</w>"], "And,</w>"], [["ha", "pp"], "happ"], [["wor", "ld</w>"], "world</w>"], [["d", "one</w>"], "done</w>"], [["con", "f"], "conf"], [["c", "</w>"], "c</w>"], [["el", "</w>"], "el</w>"], [["s", "._]</w>"], "s._]</w>"], [["th", "ous"], "thous"], [["st", "ri"], "stri"], [["own", ",</w>"], "own,</w>"], [["ce", ";</w>"], "ce;</w>"], [["t", "en</w>"], "ten</w>"], [["M", "o"], "Mo"], [["e", "mp"], "emp"], [["S", "S"], "SS"], [["p", "on</w>"], "pon</w>"], [["d", "ear</w>"], "dear</w>"], [["l", "ed</w>"], "led</w>"], [["l", "y.</w>"], "ly.</w>"], [["DUK", "E.</w>"], "DUKE.</w>"], [["me", "?</w>"], "me?</w>"], [["G", "o</w>"], "Go</w>"], [["B", "O"], "BO"], [["bea", "u"], "beau"], [["dea", "th</w>"], "death</w>"], [["c", "es</w>"], "ces</w>"], [["S", "h"], "Sh"], [["w", "o"], "wo"], [["c", "la"], "cla"], [["b", "ar"], "bar"], [["l", "ong"], "long"], [["s", "k"], "sk"], [["S", "u"], "Su"], [["da", "m,</w>"], "dam,</w>"], [["the", "m"], "them"], [["b", "er"], "ber"], [["vi", "lla"], "villa"], [["w", "in"], "win"], [["vir", "tu"], "virtu"], [["T", "a"], "Ta"], [["ch", "an"], "chan"], [["her", ",</w>"], "her,</w>"], [["N", "ow,</w>"], "Now,</w>"], [["IC", "K.</w>"], "ICK.</w>"], [["HEN", "RY.</w>"], "HENRY.</w>"], [["t", "rea"], "trea"], [["n", "e</w>"], "ne</w>"], [["so", ".</w>"], "so.</w>"], [["s", "oul"], "soul"], [["fir", "st</w>"], "first</w>"], [["man", ".</w>"], "man.</w>"], [["HAM", "LET.</w>"], "HAMLET.</w>"], [["war", "d</w>"], "ward</w>"], [["l", "ong</w>"], "long</w>"], [["o", "b"], "ob"], [["f", "ur"], "fur"], [["Ar", "e</w>"], "Are</w>"], [["d", "ly</w>"], "dly</w>"], [["I", ",</w>"], "I,</w>"], [["a", ",</w>"], "a,</w>"], [["gent", "le</w>"], "gentle</w>"], [["g", "en"], "gen"], [["l", "es</w>"], "les</w>"], [["re", "me"], "reme"], [["D", "i"], "Di"], [["r", "ing</w>"], "ring</w>"], [["es", "s.</w>"], "ess.</w>"], [["P", "rin"], "Prin"], [["ci", "ous</w>"], "cious</w>"], [["d", "ar"], "dar"], [["th", "ought</w>"], "thought</w>"], [["an", ",</w>"], "an,</w>"], [["d", "rea"], "drea"], [["\u2019", "d.</w>"], "\u2019d.</w>"], [[".", "\u2014"], ".\u2014"], [["ea", "ch</w>"], "each</w>"], [["U", "pon</w>"], "Upon</w>"], [["v", "e.</w>"], "ve.</w>"], [["s", "\u2019</w>"], "s\u2019</w>"], [["I", "M"], "IM"], [["thin", "e</w>"], "thine</w>"], [["L", "a"], "La"], [["me", ";</w>"], "me;</w>"], [["g", "re"], "gre"], [["G", "ive</w>"], "Give</w>"], [["sh", "ow</w>"], "show</w>"], [["er", "e\u2019s</w>"], "ere\u2019s</w>"], [["U", "M"], "UM"], [["p", "it"], "pit"], [["EN", "</w>"], "EN</w>"], [["si", "on</w>"], "sion</w>"], [["n", "ed</w>"], "ned</w>"], [["do", "st</w>"], "dost</w>"], [["in", "t"], "int"], [["m", "il"], "mil"], [["G", "ra"], "Gra"], [["Jo", "h"], "Joh"], [["r", "en"], "ren"], [["o", "ver"], "over"], [["c", "er"], "cer"], [["kn", "ow"], "know"], [["no", "t.</w>"], "not.</w>"], [["E", "d"], "Ed"], [["C", "on"], "Con"], [["c", "ri"], "cri"], [["th", "en"], "then"], [["ev", "en</w>"], "even</w>"], [["v", "e"], "ve"], [["y", "ing</w>"], "ying</w>"], [["wh", "om</w>"], "whom</w>"], [["d", "ee"], "dee"], [["ma", "kes</w>"], "makes</w>"], [["t", "e,</w>"], "te,</w>"], [["a", "m"], "am"], [["b", "id</w>"], "bid</w>"], [["n", "ight</w>"], "night</w>"], [["in", "i"], "ini"], [["l", "e.</w>"], "le.</w>"], [["p", "t</w>"], "pt</w>"], [["QUE", "EN</w>"], "QUEEN</w>"], [["c", "ol"], "col"], [["fa", "ir"], "fair"], [["i", "s,</w>"], "is,</w>"], [["h", "ous"], "hous"], [["k", "is"], "kis"], [["ll", ",</w>"], "ll,</w>"], [["g", "et</w>"], "get</w>"], [["t", "y,</w>"], "ty,</w>"], [["ere", "fore</w>"], "erefore</w>"], [["tur", "n</w>"], "turn</w>"], [["s", "ent</w>"], "sent</w>"], [["S", "t"], "St"], [["pa", "ti"], "pati"], [["R", "E"], "RE"], [["st", "ru"], "stru"], [["f", "ee"], "fee"], [["ga", "in</w>"], "gain</w>"], [["th", "is"], "this"], [["qu", "e"], "que"], [["i", "ther</w>"], "ither</w>"], [["ha", "l"], "hal"], [["s", "ome"], "some"], [["thous", "and</w>"], "thousand</w>"], [["n", "ee"], "nee"], [["hear", "d</w>"], "heard</w>"], [["i", "\u2019</w>"], "i\u2019</w>"], [["ab", "out</w>"], "about</w>"], [["O", "TH"], "OTH"], [["S", "H"], "SH"], [["heav", "en</w>"], "heaven</w>"], [["self", ".</w>"], "self.</w>"], [["her", ".</w>"], "her.</w>"], [["F", "a"], "Fa"], [["un", "der"], "under"], [["b", "us"], "bus"], [["I", "II.</w>"], "III.</w>"], [["h", ",</w>"], "h,</w>"], [["Qu", "e"], "Que"], [["H", "en"], "Hen"], [["C", "ome</w>"], "Come</w>"], [["ch", ".</w>"], "ch.</w>"], [["EST", "ER.</w>"], "ESTER.</w>"], [["mb", "er</w>"], "mber</w>"], [["c", "ra"], "cra"], [["si", "gh"], "sigh"], [["of", "f</w>"], "off</w>"], [["s", "on,</w>"], "son,</w>"], [["ch", "il"], "chil"], [["m", "en,</w>"], "men,</w>"], [["h", "our"], "hour"], [["b", "i"], "bi"], [["l", "and</w>"], "land</w>"], [["Y", "or"], "Yor"], [["f", "la"], "fla"], [["heav", "en"], "heaven"], [["ca", "me</w>"], "came</w>"], [["ELL", "O.</w>"], "ELLO.</w>"], [["d", "s.</w>"], "ds.</w>"], [["w", "ri"], "wri"], [["a", "t,</w>"], "at,</w>"], [["sol", "di"], "soldi"], [["des", "ir"], "desir"], [["sha", "lt</w>"], "shalt</w>"], [["s", "orr"], "sorr"], [["P", "er"], "Per"], [["c", "t</w>"], "ct</w>"], [["ran", "t</w>"], "rant</w>"], [["w", "on"], "won"], [["C", "LOW"], "CLOW"], [["BE", "TH.</w>"], "BETH.</w>"], [["A", "D"], "AD"], [["awa", "y</w>"], "away</w>"], [["st", "er,</w>"], "ster,</w>"], [["[_", "To</w>"], "[_To</w>"], [["n", "one</w>"], "none</w>"], [["mi", "stres"], "mistres"], [["dou", "b"], "doub"], [["O", "B"], "OB"], [["ta", "in"], "tain"], [["n", ".</w>"], "n.</w>"], [["n", "ow"], "now"], [["c", "ous"], "cous"], [["a", ".</w>"], "a.</w>"], [["m", "bl"], "mbl"], [["An", "</w>"], "An</w>"], [["on", "ce</w>"], "once</w>"], [["for", "th</w>"], "forth</w>"], [["CLOW", "N.</w>"], "CLOWN.</w>"], [["M", "u"], "Mu"], [["d", "e,</w>"], "de,</w>"], [["b", "on"], "bon"], [["T", "ro"], "Tro"], [["S", "ir,</w>"], "Sir,</w>"], [["P", "ER"], "PER"], [["[_Asi", "de"], "[_Aside"], [["Ma", "ster</w>"], "Master</w>"], [["Ha", "th</w>"], "Hath</w>"], [["th", "ree</w>"], "three</w>"], [["kn", "e"], "kne"], [["el", "se</w>"], "else</w>"], [["g", "la"], "gla"], [["ee", "ch</w>"], "eech</w>"], [["o", "ther"], "other"], [["st", "ar"], "star"], [["p", ",</w>"], "p,</w>"], [["i", "ce</w>"], "ice</w>"], [["d", "en</w>"], "den</w>"], [["plea", "se</w>"], "please</w>"], [["o", ".</w>"], "o.</w>"], [["M", "AC"], "MAC"], [["h", "</w>"], "h</w>"], [["qu", "a"], "qua"], [["h", "un"], "hun"], [["with", "out</w>"], "without</w>"], [["O", "W"], "OW"], [[".", "\u201d</w>"], ".\u201d</w>"], [["af", "ter</w>"], "after</w>"], [["E", "ven</w>"], "Even</w>"], [["own", ".</w>"], "own.</w>"], [["e", "f</w>"], "ef</w>"], [["W", "ould</w>"], "Would</w>"], [["es", "t,</w>"], "est,</w>"], [["ce", "i"], "cei"], [["T", "ha"], "Tha"], [["P", "o"], "Po"], [["w", "ha"], "wha"], [["r", "e</w>"], "re</w>"], [["Be", "fore</w>"], "Before</w>"], [["than", "k</w>"], "thank</w>"], [["D", "I"], "DI"], [["Caes", "ar"], "Caesar"], [["g", "g"], "gg"], [["k", "s,</w>"], "ks,</w>"], [["lor", "d</w>"], "lord</w>"], [["mar", "ri"], "marri"], [["to", "ge"], "toge"], [["h", "ang"], "hang"], [["ter", ".</w>"], "ter.</w>"], [["we", "en</w>"], "ween</w>"], [["ey", "e</w>"], "eye</w>"], [["pur", "po"], "purpo"], [["sa", "y,</w>"], "say,</w>"], [["n", "s</w>"], "ns</w>"], [["al", ",</w>"], "al,</w>"], [["BR", "UT"], "BRUT"], [["o", "a"], "oa"], [["O", "P"], "OP"], [["li", "ght</w>"], "light</w>"], [["di", "sc"], "disc"], [["ent", ".</w>"], "ent.</w>"], [["hea", "d</w>"], "head</w>"], [["da", "m"], "dam"], [["BRUT", "US.</w>"], "BRUTUS.</w>"], [["k", "ed</w>"], "ked</w>"], [["the", "m.</w>"], "them.</w>"], [["C", "OR"], "COR"], [["wr", "ong"], "wrong"], [["x", "t</w>"], "xt</w>"], [["c", "y</w>"], "cy</w>"], [["A", "B"], "AB"], [["S", "IR"], "SIR"], [["SIR", "</w>"], "SIR</w>"], [["there", "fore</w>"], "therefore</w>"], [["o", "\u2019"], "o\u2019"], [["t", "re"], "tre"], [["la", "y</w>"], "lay</w>"], [["do", "es</w>"], "does</w>"], [["that", "\u2019s</w>"], "that\u2019s</w>"], [["ER", "V"], "ERV"], [["g", "ro"], "gro"], [["li", "sh</w>"], "lish</w>"], [["a", "ff"], "aff"], [["foo", "l"], "fool"], [["\u2019", "t.</w>"], "\u2019t.</w>"], [["ro", "y"], "roy"], [["ROS", "AL"], "ROSAL"], [["T", "ES.</w>"], "TES.</w>"], [["par", "d"], "pard"], [["e", "t,</w>"], "et,</w>"], [["you", "?</w>"], "you?</w>"], [["a", "ge</w>"], "age</w>"], [["thi", "s,</w>"], "this,</w>"], [["la", "w"], "law"], [["ser", "vi"], "servi"], [["I", "OL"], "IOL"], [["re", "s</w>"], "res</w>"], [["s", "ing</w>"], "sing</w>"], [["m", "ur"], "mur"], [["res", "t</w>"], "rest</w>"], [["the", "m,</w>"], "them,</w>"], [["her", "e,</w>"], "here,</w>"], [["S", "ERV"], "SERV"], [["E", "US.</w>"], "EUS.</w>"], [["an", "other</w>"], "another</w>"], [["e", "ld</w>"], "eld</w>"], [["I", "AG"], "IAG"], [["OTH", "ELLO.</w>"], "OTHELLO.</w>"], [["en", "ce.</w>"], "ence.</w>"], [["h", "and,</w>"], "hand,</w>"], [["W", "ar"], "War"], [["IAG", "O.</w>"], "IAGO.</w>"], [["k", "en</w>"], "ken</w>"], [["le", "tter"], "letter"], [["my", "self</w>"], "myself</w>"], [["n", "ear</w>"], "near</w>"], [["Ri", "char"], "Richar"], [["it", "e</w>"], "ite</w>"], [["fa", "ll</w>"], "fall</w>"], [["sh", "or"], "shor"], [["pla", "ce</w>"], "place</w>"], [["wor", "d</w>"], "word</w>"], [["J", "u"], "Ju"], [["th", "ings</w>"], "things</w>"], [["st", "u"], "stu"], [["MI", "ST"], "MIST"], [["MIST", "RESS"], "MISTRESS"], [["MISTRESS", "</w>"], "MISTRESS</w>"], [["Wh", "ose</w>"], "Whose</w>"], [["hou", "se</w>"], "house</w>"], [["LE", "ON"], "LEON"], [["des", "er"], "deser"], [["f", "ea"], "fea"], [["com", "for"], "comfor"], [["Y", "</w>"], "Y</w>"], [["sin", "ce</w>"], "since</w>"], [["A", "t</w>"], "At</w>"], [["er", "s.</w>"], "ers.</w>"], [["CA", "SS"], "CASS"], [["him", "self</w>"], "himself</w>"], [["ri", "gh"], "righ"], [["answ", "er</w>"], "answer</w>"], [["ck", ".</w>"], "ck.</w>"], [["ou", "ra"], "oura"], [["G", "lou"], "Glou"], [["f", "ar</w>"], "far</w>"], [["Glou", "ces"], "Glouces"], [["G", "ENT"], "GENT"], [["GENT", "LE"], "GENTLE"], [["H", "ar"], "Har"], [["pr", "om"], "prom"], [["di", "sp"], "disp"], [["D", "id</w>"], "Did</w>"], [["Th", "ough</w>"], "Though</w>"], [["ho", "pe</w>"], "hope</w>"], [["A", "la"], "Ala"], [["H", "er</w>"], "Her</w>"], [["bro", "ther</w>"], "brother</w>"], [["gen", "er"], "gener"], [["D", "EM"], "DEM"], [["PRIN", "CE.</w>"], "PRINCE.</w>"], [["d", ":</w>"], "d:</w>"], [["e", "w"], "ew"], [["ra", "ther</w>"], "rather</w>"], [["Bu", "t,</w>"], "But,</w>"], [["G", "LO"], "GLO"], [["GLO", "UC"], "GLOUC"], [["thr", "ough</w>"], "through</w>"], [["t", "-"], "t-"], [["a", "gain</w>"], "again</w>"], [["s", "oul</w>"], "soul</w>"], [["fa", "ll"], "fall"], [["L", "ORD.</w>"], "LORD.</w>"], [["m", "eet</w>"], "meet</w>"], [["kn", "a"], "kna"], [["ANTON", "Y.</w>"], "ANTONY.</w>"], [["pr", "ou"], "prou"], [["S", "e"], "Se"], [["s", "or"], "sor"], [["s", "al"], "sal"], [["ri", "ght</w>"], "right</w>"], [["bus", "in"], "busin"], [["om", "orr"], "omorr"], [["E", "PH"], "EPH"], [["tim", "es</w>"], "times</w>"], [["un", "der</w>"], "under</w>"], [["ju", "d"], "jud"], [["ca", "p"], "cap"], [["on", "s</w>"], "ons</w>"], [["c", "at"], "cat"], [["tongu", "e</w>"], "tongue</w>"], [["S", "ome</w>"], "Some</w>"], [["GLOUC", "ESTER.</w>"], "GLOUCESTER.</w>"], [["o", "\u2019s</w>"], "o\u2019s</w>"], [["b", "</w>"], "b</w>"], [["si", "l"], "sil"], [["su", "ff"], "suff"], [["sa", "id</w>"], "said</w>"], [["sa", "w</w>"], "saw</w>"], [["e", "\u2019ll</w>"], "e\u2019ll</w>"], [["TI", "M"], "TIM"], [["ma", "tter"], "matter"], [["do", ",</w>"], "do,</w>"], [["c", "rea"], "crea"], [["g", "ol"], "gol"], [["T", "ill</w>"], "Till</w>"], [["._", "</w>"], "._</w>"], [["N", "E.</w>"], "NE.</w>"], [["ch", "e"], "che"], [["h", "om"], "hom"], [["gain", "st</w>"], "gainst</w>"], [["th", "at,</w>"], "that,</w>"], [["G", "AR"], "GAR"], [["st", "e</w>"], "ste</w>"], [["le", "ft</w>"], "left</w>"], [["A", "l"], "Al"], [["P", "ra"], "Pra"], [["k", "ind</w>"], "kind</w>"], [["War", "wi"], "Warwi"], [["on", "ly</w>"], "only</w>"], [["di", "e</w>"], "die</w>"], [["sa", "me</w>"], "same</w>"], [["m", "ed</w>"], "med</w>"], [["gra", "ce</w>"], "grace</w>"], [["il", ",</w>"], "il,</w>"], [["sta", "y</w>"], "stay</w>"], [["ea", "t</w>"], "eat</w>"], [["fa", "ce</w>"], "face</w>"], [["p", "en"], "pen"], [["M", "i"], "Mi"], [["oul", "dst</w>"], "ouldst</w>"], [["p", "al"], "pal"], [["B", "o"], "Bo"], [["l", "and"], "land"], [["W", ".</w>"], "W.</w>"], [["AN", "T.</w>"], "ANT.</w>"], [["A", "TH"], "ATH"], [["b", "e,</w>"], "be,</w>"], [["pro", "ve</w>"], "prove</w>"], [["c", "ell"], "cell"], [["_", "</w>"], "_</w>"], [["J", "UL"], "JUL"], [["wor", "thy</w>"], "worthy</w>"], [["Th", "ese</w>"], "These</w>"], [["c", "ed</w>"], "ced</w>"], [["sl", "eep"], "sleep"], [["x", "</w>"], "x</w>"], [["d", "ang"], "dang"], [["A", "CH"], "ACH"], [["st", "or"], "stor"], [["in", "e,</w>"], "ine,</w>"], [["ce", "?</w>"], "ce?</w>"], [["de", "ed</w>"], "deed</w>"], [["shi", "p</w>"], "ship</w>"], [["sh", "ed</w>"], "shed</w>"], [["pow", "er</w>"], "power</w>"], [["GENTLE", "MAN.</w>"], "GENTLEMAN.</w>"], [["Ca", "ssi"], "Cassi"], [["AN", "IO.</w>"], "ANIO.</w>"], [["US", "</w>"], "US</w>"], [["lif", "e,</w>"], "life,</w>"], [["at", "e,</w>"], "ate,</w>"], [["se", "en</w>"], "seen</w>"], [["all", ",</w>"], "all,</w>"], [["pe", "op"], "peop"], [["U", "CH"], "UCH"], [["lie", "ve</w>"], "lieve</w>"], [["M", "ore</w>"], "More</w>"], [["ind", "ee"], "indee"], [["C", "LE"], "CLE"], [["ing", ";</w>"], "ing;</w>"], [["ga", "ve</w>"], "gave</w>"], [["m", "igh"], "migh"], [["wom", "an"], "woman"], [["lor", "d"], "lord"], [["re", "ven"], "reven"], [["t", "end"], "tend"], [["nigh", "t,</w>"], "night,</w>"], [["it", "s</w>"], "its</w>"], [["m", "ou"], "mou"], [["i", "d,</w>"], "id,</w>"], [["Wha", "t\u2019s</w>"], "What\u2019s</w>"], [["fa", "v"], "fav"], [["li", "es</w>"], "lies</w>"], [["F", "ren"], "Fren"], [["k", "ill"], "kill"], [["ou", "ch"], "ouch"], [["l", "ing</w>"], "ling</w>"], [["again", ".</w>"], "again.</w>"], [["b", "ir"], "bir"], [["ma", "ster"], "master"], [["Y", "R"], "YR"], [["fal", "se</w>"], "false</w>"], [["wor", "ds</w>"], "words</w>"], [["Ta", "ke</w>"], "Take</w>"], [["for", "e,</w>"], "fore,</w>"], [["L", "AN"], "LAN"], [["S", "er"], "Ser"], [["ma", "ster</w>"], "master</w>"], [["t", "es"], "tes"], [["P", "AG"], "PAG"], [["th", "y"], "thy"], [["Th", "e"], "The"], [["y", "e</w>"], "ye</w>"], [["a", "ble</w>"], "able</w>"], [["ck", "s</w>"], "cks</w>"], [["W", "as</w>"], "Was</w>"], [["on", "d"], "ond"], [["l", "ear"], "lear"], [["f", "oul</w>"], "foul</w>"], [["Th", "ere\u2019s</w>"], "There\u2019s</w>"], [["V", "OL"], "VOL"], [["Li", "ke</w>"], "Like</w>"], [["s", ":</w>"], "s:</w>"], [["e", "ig"], "eig"], [["fa", "ther\u2019s</w>"], "father\u2019s</w>"], [["\u2019", "e"], "\u2019e"], [["P", "RO"], "PRO"], [["da", "y,</w>"], "day,</w>"], [["ti", "me,</w>"], "time,</w>"], [["O", "n</w>"], "On</w>"], [["to", "ld</w>"], "told</w>"], [["mu", "si"], "musi"], [["b", "an"], "ban"], [["R", "A.</w>"], "RA.</w>"], [["LA", "D"], "LAD"], [["sw", "ee"], "swee"], [["de", "f"], "def"], [["ce", "ive</w>"], "ceive</w>"], [["ne", "\u2019er</w>"], "ne\u2019er</w>"], [["hear", "t,</w>"], "heart,</w>"], [["will", ",</w>"], "will,</w>"], [["L", "o"], "Lo"], [["C", "or"], "Cor"], [["wif", "e</w>"], "wife</w>"], [["pla", "y</w>"], "play</w>"], [["ear", ",</w>"], "ear,</w>"], [["sa", "f"], "saf"], [["P", "ar"], "Par"], [["wh", "ere"], "where"], [["b", "le"], "ble"], [["a", "u"], "au"], [["wa", "y,</w>"], "way,</w>"], [["S", "pea"], "Spea"], [["v", "al"], "val"], [["IL", "L"], "ILL"], [["L", "e"], "Le"], [["e", ":</w>"], "e:</w>"], [["wi", "lt</w>"], "wilt</w>"], [["hal", "f</w>"], "half</w>"], [["te", "d,</w>"], "ted,</w>"], [["brea", "k</w>"], "break</w>"], [["pres", "ent</w>"], "present</w>"], [["bet", "ween</w>"], "between</w>"], [["com", "e.</w>"], "come.</w>"], [["d", "om"], "dom"], [["qu", "es"], "ques"], [["k", "ing,</w>"], "king,</w>"], [["tion", "s</w>"], "tions</w>"], [["M", "ESS"], "MESS"], [["M", "EN"], "MEN"], [["L", "ook</w>"], "Look</w>"], [["k", "ind"], "kind"], [["lov", "e.</w>"], "love.</w>"], [["tra", "it"], "trait"], [["g", "ed</w>"], "ged</w>"], [["hon", "est</w>"], "honest</w>"], [["Pa", "la"], "Pala"], [["IV", ".</w>"], "IV.</w>"], [["si", "t</w>"], "sit</w>"], [["go", "ds</w>"], "gods</w>"], [["AN", "TI"], "ANTI"], [["with", "in</w>"], "within</w>"], [["W", "ere</w>"], "Were</w>"], [["sa", "ys</w>"], "says</w>"], [["d", "-"], "d-"], [["sp", "ee"], "spee"], [["i", "sh"], "ish"], [["ro", "om</w>"], "room</w>"], [["K", "ing"], "King"], [["PAG", "E.</w>"], "PAGE.</w>"], [["me", "an</w>"], "mean</w>"], [["d", "in"], "din"], [["w", "an"], "wan"], [["s", "end</w>"], "send</w>"], [["l", "and,</w>"], "land,</w>"], [["li", "e</w>"], "lie</w>"], [["y", "i"], "yi"], [["foll", "ow"], "follow"], [["P", "e"], "Pe"], [["il", "e</w>"], "ile</w>"], [["sel", "ves</w>"], "selves</w>"], [["ou", "t"], "out"], [["Ma", "y</w>"], "May</w>"], [["k", "e.</w>"], "ke.</w>"], [["f", "an"], "fan"], [["mor", "e.</w>"], "more.</w>"], [["B", "ru"], "Bru"], [["P", "AR"], "PAR"], [["c", "tor"], "ctor"], [["h", "our</w>"], "hour</w>"], [["Th", "erefore</w>"], "Therefore</w>"], [["sw", "ear</w>"], "swear</w>"], [["daugh", "ter</w>"], "daughter</w>"], [["ce", "!</w>"], "ce!</w>"], [["H", "OR"], "HOR"], [["Y", "OR"], "YOR"], [["TIM", "ON.</w>"], "TIMON.</w>"], [["S", "w"], "Sw"], [["v", "es,</w>"], "ves,</w>"], [["fa", "ther,</w>"], "father,</w>"], [["mean", "s</w>"], "means</w>"], [["ugh", "t</w>"], "ught</w>"], [["Mo", "st</w>"], "Most</w>"], [["er", "y</w>"], "ery</w>"], [["d", "rin"], "drin"], [["wh", "y</w>"], "why</w>"], [["f", "ound</w>"], "found</w>"], [["A", "no"], "Ano"], [["la", "st</w>"], "last</w>"], [["or", "s</w>"], "ors</w>"], [["H", "EL"], "HEL"], [["F", "ORD.</w>"], "FORD.</w>"], [["CLE", "OP"], "CLEOP"], [["CLEOP", "AT"], "CLEOPAT"], [["mb", "er"], "mber"], [["j", "est"], "jest"], [["k", "in"], "kin"], [["S", "in"], "Sin"], [["d", "ge</w>"], "dge</w>"], [["bloo", "dy</w>"], "bloody</w>"], [["lo", "se</w>"], "lose</w>"], [["f", "it</w>"], "fit</w>"], [["ch", "oo"], "choo"], [["hu", "m"], "hum"], [["dea", "th.</w>"], "death.</w>"], [["high", "</w>"], "high</w>"], [["d", "ro"], "dro"], [["again", ",</w>"], "again,</w>"], [["min", "d</w>"], "mind</w>"], [["l", ".</w>"], "l.</w>"], [[",", "\u201d</w>"], ",\u201d</w>"], [["bes", "eech</w>"], "beseech</w>"], [["fl", "ow"], "flow"], [["s", "on.</w>"], "son.</w>"], [["bo", "dy</w>"], "body</w>"], [["ho", "p"], "hop"], [["see", "k</w>"], "seek</w>"], [["ll", "y</w>"], "lly</w>"], [["our", "s</w>"], "ours</w>"], [["roy", "al</w>"], "royal</w>"], [["MAC", "BETH.</w>"], "MACBETH.</w>"], [["Wi", "th"], "With"], [["st", "o"], "sto"], [["s", "oun"], "soun"], [["pres", "ent"], "present"], [["F", "are"], "Fare"], [["him", ";</w>"], "him;</w>"], [["CLEOPAT", "RA.</w>"], "CLEOPATRA.</w>"], [["S", "YR"], "SYR"], [["SYR", "AC"], "SYRAC"], [["MAR", "GAR"], "MARGAR"], [["IN", "A.</w>"], "INA.</w>"], [["men", ".</w>"], "men.</w>"], [["m", "ea"], "mea"], [["O", "ne</w>"], "One</w>"], [["la", "dy</w>"], "lady</w>"], [["ROSAL", "IN"], "ROSALIN"], [["BA", "ST"], "BAST"], [["happ", "y</w>"], "happy</w>"], [["mor", "e,</w>"], "more,</w>"], [["l", "s</w>"], "ls</w>"], [["si", "g"], "sig"], [["t", "y.</w>"], "ty.</w>"], [["th", ";</w>"], "th;</w>"], [["SYRAC", "US"], "SYRACUS"], [["SYRACUS", "E.</w>"], "SYRACUSE.</w>"], [["IN", "IUS.</w>"], "INIUS.</w>"], [["t", "y"], "ty"], [["br", "ought</w>"], "brought</w>"], [["w", "oo"], "woo"], [["Ano", "ther</w>"], "Another</w>"], [["h", "e\u2019s</w>"], "he\u2019s</w>"], [["foll", "ow</w>"], "follow</w>"], [["ROSALIN", "D.</w>"], "ROSALIND.</w>"], [["YOR", "K.</w>"], "YORK.</w>"], [["w", "eep"], "weep"], [["D", "e"], "De"], [["dea", "th,</w>"], "death,</w>"], [["b", "ani"], "bani"], [["G", "ER.</w>"], "GER.</w>"], [["AR", "D"], "ARD"], [["J", "A"], "JA"], [["AN", "US.</w>"], "ANUS.</w>"], [["Prin", "ce</w>"], "Prince</w>"], [["RO", "M"], "ROM"], [["nat", "ure</w>"], "nature</w>"], [["t", "al</w>"], "tal</w>"], [["t", "ro"], "tro"], [["wi", "sh</w>"], "wish</w>"], [["ess", "eng"], "esseng"], [["too", ".</w>"], "too.</w>"], [["shi", "p"], "ship"], [[",", "\u2014</w>"], ",\u2014</w>"], [["Mi", "stres"], "Mistres"], [["B", "EN"], "BEN"], [["ba", "ck</w>"], "back</w>"], [["thou", ",</w>"], "thou,</w>"], [["r", "ed</w>"], "red</w>"], [["fa", "ul"], "faul"], [["dea", "d</w>"], "dead</w>"], [["c", "it"], "cit"], [["f", "re"], "fre"], [["f", "f</w>"], "ff</w>"], [["EL", "IA.</w>"], "ELIA.</w>"], [["IL", "IA.</w>"], "ILIA.</w>"], [["fri", "end</w>"], "friend</w>"], [["un", "c"], "unc"], [["AN", "A.</w>"], "ANA.</w>"], [["O", "G"], "OG"], [["CI", "TI"], "CITI"], [["CITI", "Z"], "CITIZ"], [["G", "R"], "GR"], [["K", "ATH"], "KATH"], [["OL", "K.</w>"], "OLK.</w>"], [["s", "un"], "sun"], [["t", "ow"], "tow"], [["go", ".</w>"], "go.</w>"], [["bl", "e,</w>"], "ble,</w>"], [["it", "?</w>"], "it?</w>"], [["pa", "la"], "pala"], [["rea", "son</w>"], "reason</w>"], [["es", "?</w>"], "es?</w>"], [["al", ".</w>"], "al.</w>"], [["A", "U"], "AU"], [["N", "or"], "Nor"], [["t", "es</w>"], "tes</w>"], [["ll", ".</w>"], "ll.</w>"], [["sa", "y"], "say"], [["hel", "p</w>"], "help</w>"], [["com", "man"], "comman"], [["MESS", "EN"], "MESSEN"], [["Lu", "ci"], "Luci"], [["MARGAR", "ET.</w>"], "MARGARET.</w>"], [["d", "ear"], "dear"], [["ju", "sti"], "justi"], [["L", "ad"], "Lad"], [["ne", "w</w>"], "new</w>"], [["d", "d"], "dd"], [["rea", "d</w>"], "read</w>"], [["wom", "an</w>"], "woman</w>"], [["d", "are</w>"], "dare</w>"], [["igh", "t.</w>"], "ight.</w>"], [["H", "ec"], "Hec"], [["n", "ess,</w>"], "ness,</w>"], [["b", "it"], "bit"], [["all", ".</w>"], "all.</w>"], [["MESSEN", "GER.</w>"], "MESSENGER.</w>"], [["W", "AR"], "WAR"], [["J", "O"], "JO"], [["A", "tt"], "Att"], [["sc", "or"], "scor"], [["dra", "w</w>"], "draw</w>"], [["ch", "ee"], "chee"], [["t", "ry</w>"], "try</w>"], [["T", "ER.</w>"], "TER.</w>"], [["OL", ".</w>"], "OL.</w>"], [["ON", "</w>"], "ON</w>"], [["men", "t,</w>"], "ment,</w>"], [["p", "lu"], "plu"], [["so", "ver"], "sover"], [["sover", "eig"], "sovereig"], [["gu", "e</w>"], "gue</w>"], [["\u2019", "t,</w>"], "\u2019t,</w>"], [["b", "ed</w>"], "bed</w>"], [["o\u2019", "er"], "o\u2019er"], [["t", ":</w>"], "t:</w>"], [["ll", "i"], "lli"], [["rea", "t</w>"], "reat</w>"], [["ent", "er"], "enter"], [["v", "ent"], "vent"], [["T", "ell</w>"], "Tell</w>"], [["ser", "ve</w>"], "serve</w>"], [["T", "ru"], "Tru"], [["ti", "es</w>"], "ties</w>"], [["st", "re"], "stre"], [["hol", "y</w>"], "holy</w>"], [["Ro", "om</w>"], "Room</w>"], [["Y", "es,</w>"], "Yes,</w>"], [["end", "an"], "endan"], [["K", "ing,</w>"], "King,</w>"], [["LE", "AR.</w>"], "LEAR.</w>"], [["TH", "IR"], "THIR"], [["THIR", "D</w>"], "THIRD</w>"], [["Ma", "ke</w>"], "Make</w>"], [["re", "por"], "repor"], [["man", "n"], "mann"], [["de", "li"], "deli"], [["P", "OL"], "POL"], [["I", "AN.</w>"], "IAN.</w>"], [[",", "\u2014"], ",\u2014"], [["c", "ee"], "cee"], [["man", "\u2019s</w>"], "man\u2019s</w>"], [["Th", "us</w>"], "Thus</w>"], [["w", "al"], "wal"], [["ther", "e\u2019s</w>"], "there\u2019s</w>"], [["WAR", "W"], "WARW"], [["e", "-"], "e-"], [["gu", "il"], "guil"], [["ear", "s,</w>"], "ears,</w>"], [["d", "om</w>"], "dom</w>"], [["k", "ill</w>"], "kill</w>"], [["fa", "ther"], "father"], [["her", "e.</w>"], "here.</w>"], [["ck", "ed</w>"], "cked</w>"], [["f", "in"], "fin"], [["st", "ate</w>"], "state</w>"], [["wi", "t"], "wit"], [["w", "re"], "wre"], [["sp", "or"], "spor"], [["t", "ar"], "tar"], [["C", "O"], "CO"], [["Mar", "ry,</w>"], "Marry,</w>"], [["Pra", "y</w>"], "Pray</w>"], [["t", "omorr"], "tomorr"], [["L", ".</w>"], "L.</w>"], [["H", "ER"], "HER"], [["LAD", "Y</w>"], "LADY</w>"], [["desir", "e</w>"], "desire</w>"], [["Sin", "ce</w>"], "Since</w>"], [["d", "one,</w>"], "done,</w>"], [["ou", "t,</w>"], "out,</w>"], [["s", "ci"], "sci"], [["P", "ri"], "Pri"], [["W", "ARD.</w>"], "WARD.</w>"], [["swor", "d</w>"], "sword</w>"], [["Y", "S"], "YS"], [["WARW", "ICK.</w>"], "WARWICK.</w>"], [["wor", "th</w>"], "worth</w>"], [["dra", "w"], "draw"], [["b", "oo"], "boo"], [["sub", "j"], "subj"], [["ment", "s</w>"], "ments</w>"], [["lo", "st</w>"], "lost</w>"], [["lor", "ds,</w>"], "lords,</w>"], [["G", "o,</w>"], "Go,</w>"], [["qu", "ar"], "quar"], [["z", "e</w>"], "ze</w>"], [[")", "</w>"], ")</w>"], [["bloo", "d,</w>"], "blood,</w>"], [["no", "th"], "noth"], [["go", "t</w>"], "got</w>"], [["gri", "ef"], "grief"], [["se", ";</w>"], "se;</w>"], [["H", "el"], "Hel"], [["ser", "v"], "serv"], [["Mistres", "s</w>"], "Mistress</w>"], [["ANTI", "PH"], "ANTIPH"], [["ANTIPH", "OL"], "ANTIPHOL"], [["ANTIPHOL", "US</w>"], "ANTIPHOLUS</w>"], [["f", "ra"], "fra"], [["gra", "cious</w>"], "gracious</w>"], [["sha", "me</w>"], "shame</w>"], [["f", "r"], "fr"], [["ch", "o"], "cho"], [["ea", ",</w>"], "ea,</w>"], [["C", "L"], "CL"], [["ey", "es,</w>"], "eyes,</w>"], [["st", "ea"], "stea"], [["a", "g"], "ag"], [["p", "ec"], "pec"], [["frien", "ds</w>"], "friends</w>"], [["our", ",</w>"], "our,</w>"], [["d", "y,</w>"], "dy,</w>"], [["hous", "e.</w>"], "house.</w>"], [["Caes", "ar</w>"], "Caesar</w>"], [["F", "i"], "Fi"], [["th", "ri"], "thri"], [["kn", "ows</w>"], "knows</w>"], [["Ha", "d</w>"], "Had</w>"], [["stran", "ge</w>"], "strange</w>"], [["me", "!</w>"], "me!</w>"], [["n", "\u2019d</w>"], "n\u2019d</w>"], [["CITIZ", "EN.</w>"], "CITIZEN.</w>"], [["D", "ON</w>"], "DON</w>"], [["gi", "ven</w>"], "given</w>"], [["m", "el"], "mel"], [["n", "or"], "nor"], [["a", "bo"], "abo"], [["la", "ugh"], "laugh"], [["n", "u"], "nu"], [["et", "\u2019s</w>"], "et\u2019s</w>"], [["in", "ter"], "inter"], [["b", "li"], "bli"], [["w", "oun"], "woun"], [["y", "-"], "y-"], [["fai", "th,</w>"], "faith,</w>"], [["[_", "S"], "[_S"], [["Que", "en</w>"], "Queen</w>"], [["ll", "ow</w>"], "llow</w>"], [["JO", "H"], "JOH"], [["m", "ee"], "mee"], [["bl", "ess"], "bless"], [["i", "m</w>"], "im</w>"], [["igh", "t,</w>"], "ight,</w>"], [["d", "on"], "don"], [["ma", "dam,</w>"], "madam,</w>"], [["f", "are"], "fare"], [["this", "?</w>"], "this?</w>"], [["O", "r"], "Or"], [["D", "ER"], "DER"], [["V", "AL"], "VAL"], [["L", "ond"], "Lond"], [["thin", "ks</w>"], "thinks</w>"], [["lov", "es</w>"], "loves</w>"], [["we", "\u2019ll</w>"], "we\u2019ll</w>"], [["SERV", "ANT.</w>"], "SERVANT.</w>"], [["nat", "u"], "natu"], [["f", "ar"], "far"], [["h", "ur"], "hur"], [["wh", "ol"], "whol"], [["va", "li"], "vali"], [["st", "and"], "stand"], [["TI", "T"], "TIT"], [["b", "oun"], "boun"], [["t", "or</w>"], "tor</w>"], [["ment", ".</w>"], "ment.</w>"], [["han", "ds</w>"], "hands</w>"], [["kn", "own</w>"], "known</w>"], [["th", "s</w>"], "ths</w>"], [["M", "on"], "Mon"], [["s", "\u2019d</w>"], "s\u2019d</w>"], [["o", "be"], "obe"], [["sh", ".</w>"], "sh.</w>"], [["us", "?</w>"], "us?</w>"], [["da", "y.</w>"], "day.</w>"], [["o", "\u2019er</w>"], "o\u2019er</w>"], [["pa", "in"], "pain"], [["st", "ol"], "stol"], [["too", ",</w>"], "too,</w>"], [["an", "s</w>"], "ans</w>"], [["e", "\u2019er</w>"], "e\u2019er</w>"], [["coun", "tr"], "countr"], [["la", "u"], "lau"], [["D", "a"], "Da"], [["EM", "ILIA.</w>"], "EMILIA.</w>"], [["l", "in"], "lin"], [["pa", "ssi"], "passi"], [["u", "mp"], "ump"], [["tt", "y</w>"], "tty</w>"], [["r", "un"], "run"], [["c", "ow"], "cow"], [["C", "oun"], "Coun"], [["s", "mil"], "smil"], [["tw", "ent"], "twent"], [["AR", "US.</w>"], "ARUS.</w>"], [["it", ";</w>"], "it;</w>"], [["bo", "s"], "bos"], [["Wh", "ere"], "Where"], [["see", "m</w>"], "seem</w>"], [["t", "ears</w>"], "tears</w>"], [["t", "est</w>"], "test</w>"], [["you", ";</w>"], "you;</w>"], [["Ala", "s,</w>"], "Alas,</w>"], [["ON", "A.</w>"], "ONA.</w>"], [["y", ":</w>"], "y:</w>"], [["fi", "el"], "fiel"], [["beau", "ty</w>"], "beauty</w>"], [["be", "lieve</w>"], "believe</w>"], [["The", "ir</w>"], "Their</w>"], [["t", "in"], "tin"], [["aff", "ec"], "affec"], [["W", "e\u2019ll</w>"], "We\u2019ll</w>"], [["spea", "k"], "speak"], [["or", ".</w>"], "or.</w>"], [["C", "LA"], "CLA"], [["CLA", "U"], "CLAU"], [["D", "es"], "Des"], [["su", "m"], "sum"], [["w", "ear"], "wear"], [["jo", "y</w>"], "joy</w>"], [["sh", ",</w>"], "sh,</w>"], [["c", "ro"], "cro"], [["en", "t,</w>"], "ent,</w>"], [["la", "te</w>"], "late</w>"], [["di", "g"], "dig"], [["g", ",</w>"], "g,</w>"], [["tal", "k</w>"], "talk</w>"], [["char", "ge</w>"], "charge</w>"], [["ANTON", "IO.</w>"], "ANTONIO.</w>"], [["ROM", "E"], "ROME"], [["le", "x"], "lex"], [["w", "er"], "wer"], [["M", "e"], "Me"], [["Joh", "n</w>"], "John</w>"], [["D", "ES"], "DES"], [["DES", "DEM"], "DESDEM"], [["tru", "th</w>"], "truth</w>"], [["C", "an</w>"], "Can</w>"], [["mo", "ther</w>"], "mother</w>"], [["k", "\u2019d</w>"], "k\u2019d</w>"], [["d", "y.</w>"], "dy.</w>"], [["P", "ea"], "Pea"], [["MI", "O</w>"], "MIO</w>"], [["MEN", "EN"], "MENEN"], [["H", "OST"], "HOST"], [["DESDEM", "ONA.</w>"], "DESDEMONA.</w>"], [["ol", "d,</w>"], "old,</w>"], [["w", "ear</w>"], "wear</w>"], [["la", "b"], "lab"], [["it", "y,</w>"], "ity,</w>"], [["daugh", "ter"], "daughter"], [["T", "it"], "Tit"], [["D", "RO"], "DRO"], [["DRO", "MIO</w>"], "DROMIO</w>"], [["MENEN", "IUS.</w>"], "MENENIUS.</w>"], [["CLAU", "D"], "CLAUD"], [["c", "ru"], "cru"], [["g", "lor"], "glor"], [["is", "ed</w>"], "ised</w>"], [["b", "att"], "batt"], [["pra", "y"], "pray"], [["for", "ce</w>"], "force</w>"], [["c", "ti"], "cti"], [["lad", "y,</w>"], "lady,</w>"], [["bl", "e.</w>"], "ble.</w>"], [["lor", "d?</w>"], "lord?</w>"], [["en", "ter</w>"], "enter</w>"], [["P", "AND"], "PAND"], [["ROME", "O.</w>"], "ROMEO.</w>"], [["prou", "d</w>"], "proud</w>"], [["on", "d</w>"], "ond</w>"], [["pri", "son"], "prison"], [["Tha", "t\u2019s</w>"], "That\u2019s</w>"], [["str", "ong</w>"], "strong</w>"], [["T", "i"], "Ti"], [["though", "ts</w>"], "thoughts</w>"], [["whi", "le</w>"], "while</w>"], [["d", "e.</w>"], "de.</w>"], [["c", "ry</w>"], "cry</w>"], [["ur", "e,</w>"], "ure,</w>"], [["kis", "s</w>"], "kiss</w>"], [["ou", "t.</w>"], "out.</w>"], [["bro", "ther"], "brother"], [["ED", "WARD.</w>"], "EDWARD.</w>"], [["hear", "t.</w>"], "heart.</w>"], [["an", "y"], "any"], [["heav", "en,</w>"], "heaven,</w>"], [["en", "ough"], "enough"], [["son", "s</w>"], "sons</w>"], [["t", "ure</w>"], "ture</w>"], [["es", "t.</w>"], "est.</w>"], [["pard", "on</w>"], "pardon</w>"], [["pea", "ce</w>"], "peace</w>"], [["sa", "ve</w>"], "save</w>"], [["Ma", "dam,</w>"], "Madam,</w>"], [["J", "a"], "Ja"], [["BER", "OW"], "BEROW"], [["F", "RI"], "FRI"], [["CLAUD", "IO.</w>"], "CLAUDIO.</w>"], [["ow", "ed</w>"], "owed</w>"], [["bor", "n</w>"], "born</w>"], [["c", "are</w>"], "care</w>"], [["o", "ver</w>"], "over</w>"], [["d", "ru"], "dru"], [["st", "er.</w>"], "ster.</w>"], [["Sh", "ould</w>"], "Should</w>"], [["IN", ".</w>"], "IN.</w>"], [["P", "OR"], "POR"], [["BEROW", "NE.</w>"], "BEROWNE.</w>"], [["PE", "TR"], "PETR"], [["PETR", "UCH"], "PETRUCH"], [["an", "o"], "ano"], [["ther", "e,</w>"], "there,</w>"], [["str", "eng"], "streng"], [["g", "one</w>"], "gone</w>"], [["t", "le</w>"], "tle</w>"], [["i", "sh</w>"], "ish</w>"], [["no", ",</w>"], "no,</w>"], [["p", "ity</w>"], "pity</w>"], [["kne", "w</w>"], "knew</w>"], [["Y", "ou"], "You"], [["le", "t\u2019s</w>"], "let\u2019s</w>"], [["OL", "IV"], "OLIV"], [["R", "ome"], "Rome"], [["PETRUCH", "IO.</w>"], "PETRUCHIO.</w>"], [["s", "s,</w>"], "ss,</w>"], [["t", "ell"], "tell"], [["Su", "ch</w>"], "Such</w>"], [["s", "un</w>"], "sun</w>"], [["sh", "o"], "sho"], [["sc", "ar"], "scar"], [["han", "d.</w>"], "hand.</w>"], [["ga", "ll"], "gall"], [["f", "ight</w>"], "fight</w>"], [["ard", "in"], "ardin"], [["wa", "ll"], "wall"], [["dea", "d,</w>"], "dead,</w>"], [["n", "ow.</w>"], "now.</w>"], [["awa", "y.</w>"], "away.</w>"], [["h", "e,</w>"], "he,</w>"], [["c", "tion</w>"], "ction</w>"], [["i", "s.</w>"], "is.</w>"], [["I", "I</w>"], "II</w>"], [["d", "ri"], "dri"], [["war", "rant</w>"], "warrant</w>"], [["F", "al"], "Fal"], [["P", "ED"], "PED"], [["ID", "A.</w>"], "IDA.</w>"], [["C", "RESS"], "CRESS"], [["s", "ing"], "sing"], [["go", "es</w>"], "goes</w>"], [["wi", "se</w>"], "wise</w>"], [["mi", "li"], "mili"], [["Mu", "st</w>"], "Must</w>"], [["es", "ty</w>"], "esty</w>"], [["Att", "endan"], "Attendan"], [["tru", "mp"], "trump"], [["VAL", "ENT"], "VALENT"], [["b", "e.</w>"], "be.</w>"], [["A", "h,</w>"], "Ah,</w>"], [["your", "self</w>"], "yourself</w>"], [["AN", "O.</w>"], "ANO.</w>"], [["fortun", "e</w>"], "fortune</w>"], [["m", "oun"], "moun"], [["en", "ough</w>"], "enough</w>"], [["cr", "own"], "crown"], [["G", "ent"], "Gent"], [["heav", "y</w>"], "heavy</w>"], [["fl", "es"], "fles"], [["too", "k</w>"], "took</w>"], [["tru", "e,</w>"], "true,</w>"], [["L", "OR"], "LOR"], [["villa", "in"], "villain"], [["A", "S.</w>"], "AS.</w>"], [["QUE", "EN.</w>"], "QUEEN.</w>"], [["SH", "AL"], "SHAL"], [["T", "OB"], "TOB"], [["PRIN", "C"], "PRINC"], [["loo", "ks</w>"], "looks</w>"], [["fir", "e</w>"], "fire</w>"], [["Fren", "ch</w>"], "French</w>"], [["coun", "sel"], "counsel"], [["will", ".</w>"], "will.</w>"], [["A", "then"], "Athen"], [["AB", "ELL"], "ABELL"], [["ABELL", "A.</w>"], "ABELLA.</w>"], [["Gra", "ce</w>"], "Grace</w>"], [["Hen", "ry</w>"], "Henry</w>"], [["PAND", "ARUS.</w>"], "PANDARUS.</w>"], [["CRESS", "IDA.</w>"], "CRESSIDA.</w>"], [["VALENT", "INE.</w>"], "VALENTINE.</w>"], [["TOB", "Y.</w>"], "TOBY.</w>"], [["COR", "IOL"], "CORIOL"], [["G", "re"], "Gre"], [["for", "m"], "form"], [["sa", "me.</w>"], "same.</w>"], [["bl", "u"], "blu"], [["HEL", "EN"], "HELEN"], [["her", "e?</w>"], "here?</w>"], [["him", "?</w>"], "him?</w>"], [["sir", ";</w>"], "sir;</w>"], [["B", "ri"], "Bri"], [["ent", "s</w>"], "ents</w>"], [["v", "\u2019d</w>"], "v\u2019d</w>"], [["chan", "ge</w>"], "change</w>"], [["A", "gainst</w>"], "Against</w>"], [["re", "tur"], "retur"], [["foo", "l</w>"], "fool</w>"], [["g", "at"], "gat"], [["se", "ver"], "sever"], [["er", ";</w>"], "er;</w>"], [["sir", "?</w>"], "sir?</w>"], [["[_Aside", "_.]</w>"], "[_Aside_.]</w>"], [["N", "OR"], "NOR"], [["C", "AL"], "CAL"], [["I", "Z"], "IZ"], [["VOL", "IO.</w>"], "VOLIO.</w>"], [["di", "es</w>"], "dies</w>"], [["ear", "th</w>"], "earth</w>"], [["A", "u"], "Au"], [["r", "oo"], "roo"], [["it", "self</w>"], "itself</w>"], [["honour", ",</w>"], "honour,</w>"], [["thi", "s.</w>"], "this.</w>"], [["PRO", "T"], "PROT"], [["bra", "ve</w>"], "brave</w>"], [["str", "ong"], "strong"], [["ou", "s,</w>"], "ous,</w>"], [["se", "?</w>"], "se?</w>"], [["ear", ".</w>"], "ear.</w>"], [["r", "un</w>"], "run</w>"], [["CORIOL", "ANUS.</w>"], "CORIOLANUS.</w>"], [["PROT", "EUS.</w>"], "PROTEUS.</w>"], [["ch", "es</w>"], "ches</w>"], [["you", "th</w>"], "youth</w>"], [["st", "e"], "ste"], [["wi", "t</w>"], "wit</w>"], [["min", "e,</w>"], "mine,</w>"], [["nee", "ds</w>"], "needs</w>"], [["spiri", "t</w>"], "spirit</w>"], [["rea", "dy</w>"], "ready</w>"], [["d", "ness</w>"], "dness</w>"], [["p", "l"], "pl"], [["ou", "ch</w>"], "ouch</w>"], [["friend", "s,</w>"], "friends,</w>"], [["es", "!</w>"], "es!</w>"], [["CA", "P"], "CAP"], [["C", "T"], "CT"], [["S", "i"], "Si"], [["HAM", ".</w>"], "HAM.</w>"], [["co", "ld</w>"], "cold</w>"], [["kn", "ow,</w>"], "know,</w>"], [["y", "s,</w>"], "ys,</w>"], [["st", "at"], "stat"], [["CO", "UN"], "COUN"], [["AM", ".</w>"], "AM.</w>"], [["i", "an"], "ian"], [["th", "u"], "thu"], [["worl", "d,</w>"], "world,</w>"], [["can", "st</w>"], "canst</w>"], [["al", "most</w>"], "almost</w>"], [["di", "dst</w>"], "didst</w>"], [["e", "u"], "eu"], [["g", "ran"], "gran"], [["HELEN", "A.</w>"], "HELENA.</w>"], [["qu", "o"], "quo"], [["wel", "come</w>"], "welcome</w>"], [["S", "U"], "SU"], [["B", "UC"], "BUC"], [["BUC", "KING"], "BUCKING"], [["B", "EL"], "BEL"], [["k", "eep"], "keep"], [["ch", "er"], "cher"], [["tr", "ou"], "trou"], [["ma", "tter</w>"], "matter</w>"], [["b", "ound</w>"], "bound</w>"], [["c", "ut</w>"], "cut</w>"], [["lif", "e.</w>"], "life.</w>"], [["van", "ta"], "vanta"], [["bo", "y,</w>"], "boy,</w>"], [["su", "pp"], "supp"], [["JOH", "N.</w>"], "JOHN.</w>"], [["CA", "ES"], "CAES"], [["i", "ma"], "ima"], [["ri", "ch</w>"], "rich</w>"], [["st", ";</w>"], "st;</w>"], [["comm", "on</w>"], "common</w>"], [["g", "s</w>"], "gs</w>"], [["frien", "d,</w>"], "friend,</w>"], [["new", "s</w>"], "news</w>"], [["PAR", "OL"], "PAROL"], [["H", "ea"], "Hea"], [["sh", "\u2019d</w>"], "sh\u2019d</w>"], [["L", "et\u2019s</w>"], "Let\u2019s</w>"], [["ig", "ni"], "igni"], [["for", "m</w>"], "form</w>"], [["is", "su"], "issu"], [["sur", "e,</w>"], "sure,</w>"], [["sh", "e"], "she"], [["ch", "ol"], "chol"], [["si", "de</w>"], "side</w>"], [["T", "o"], "To"], [["ne", "ed</w>"], "need</w>"], [["nigh", "t.</w>"], "night.</w>"], [["PAROL", "LES.</w>"], "PAROLLES.</w>"], [["as", "k</w>"], "ask</w>"], [["[_Aside", "._]</w>"], "[_Aside._]</w>"], [["BUCKING", "HAM.</w>"], "BUCKINGHAM.</w>"], [["p", "er</w>"], "per</w>"], [["ha", "st"], "hast"], [["ing", "s,</w>"], "ings,</w>"], [["i", "ous</w>"], "ious</w>"], [["ex", "cell"], "excell"], [["a", "tion</w>"], "ation</w>"], [["Sw", "eet</w>"], "Sweet</w>"], [["re", "qu"], "requ"], [["Sa", "y</w>"], "Say</w>"], [["c", "y,</w>"], "cy,</w>"], [["C", "har"], "Char"], [["twent", "y</w>"], "twenty</w>"], [["fell", "ow</w>"], "fellow</w>"], [["EPH", "ES"], "EPHES"], [["SHAL", "LOW"], "SHALLOW"], [["SU", "FF"], "SUFF"], [["pa", "ss</w>"], "pass</w>"], [["v", "el"], "vel"], [["h", "ome</w>"], "home</w>"], [["in", "ed</w>"], "ined</w>"], [["w", "ra"], "wra"], [["up", ",</w>"], "up,</w>"], [["V", ".</w>"], "V.</w>"], [["e", "mb"], "emb"], [["C", "h"], "Ch"], [["gentle", "man</w>"], "gentleman</w>"], [["Ser", "van"], "Servan"], [["R", "O.</w>"], "RO.</w>"], [["K", "EN"], "KEN"], [["P", "AL"], "PAL"], [["PAL", "AM"], "PALAM"], [["gi", "ves</w>"], "gives</w>"], [["j", "a"], "ja"], [["ti", "ve</w>"], "tive</w>"], [["har", "d</w>"], "hard</w>"], [["W", "el"], "Wel"], [["on", ";</w>"], "on;</w>"], [["comp", "an"], "compan"], [["P", "om"], "Pom"], [["EPHES", "US.</w>"], "EPHESUS.</w>"], [["C", "lau"], "Clau"], [["Clau", "di"], "Claudi"], [["EL", ".</w>"], "EL.</w>"], [["B", "UR"], "BUR"], [["PALAM", "ON.</w>"], "PALAMON.</w>"], [["c", "ea"], "cea"], [["hea", "d,</w>"], "head,</w>"], [["se", "cre"], "secre"], [["re", "p"], "rep"], [["il", "s</w>"], "ils</w>"], [["t", "e.</w>"], "te.</w>"], [["ne", "xt</w>"], "next</w>"], [["wi", "thin"], "within"], [["W", "ell</w>"], "Well</w>"], [["E", "ar"], "Ear"], [["re", "ver"], "rever"], [["SUFF", "OLK.</w>"], "SUFFOLK.</w>"], [["CASS", "IUS.</w>"], "CASSIUS.</w>"], [["of", "t</w>"], "oft</w>"], [["f", "ec"], "fec"], [["li", "p"], "lip"], [["ar", "i"], "ari"], [["ap", "pro"], "appro"], [["some", "thing</w>"], "something</w>"], [["po", "is"], "pois"], [["cer", "tain</w>"], "certain</w>"], [["h", "ee"], "hee"], [["hon", "oura"], "honoura"], [["Fran", "ce</w>"], "France</w>"], [["\u2019", "en</w>"], "\u2019en</w>"], [["H", "igh"], "High"], [["T", "al"], "Tal"], [["su", "c"], "suc"], [["se", "d,</w>"], "sed,</w>"], [["gri", "ef</w>"], "grief</w>"], [["wi", "xt</w>"], "wixt</w>"], [["mor", "r"], "morr"], [["ing", "?</w>"], "ing?</w>"], [["k", "ing.</w>"], "king.</w>"], [["B", "es"], "Bes"], [["no", "bl"], "nobl"], [["ti", "s"], "tis"], [["busin", "ess</w>"], "business</w>"], [["H", "e\u2019s</w>"], "He\u2019s</w>"], [["bro", "ther,</w>"], "brother,</w>"], [["CAES", "AR.</w>"], "CAESAR.</w>"], [["LUC", "IUS.</w>"], "LUCIUS.</w>"], [["UR", ".</w>"], "UR.</w>"], [["k", "\u2019st</w>"], "k\u2019st</w>"], [["ec", "u"], "ecu"], [["e", "ff"], "eff"], [["dea", "th"], "death"], [["sorr", "ow</w>"], "sorrow</w>"], [["th", "or"], "thor"], [["re", "ma"], "rema"], [["di", "re"], "dire"], [["so", "on</w>"], "soon</w>"], [["be", "come</w>"], "become</w>"], [["ser", "van"], "servan"], [["so", "?</w>"], "so?</w>"], [["con", "sci"], "consci"], [["our", ".</w>"], "our.</w>"], [["ar", "ms</w>"], "arms</w>"], [["w", "ind</w>"], "wind</w>"], [["SHALLOW", ".</w>"], "SHALLOW.</w>"], [["POR", "TI"], "PORTI"], [["BEN", "ED"], "BENED"], [["T", "RO"], "TRO"], [["TRO", "IL"], "TROIL"], [["tend", "er</w>"], "tender</w>"], [["li", "ves</w>"], "lives</w>"], [["par", "t,</w>"], "part,</w>"], [["wi", "s"], "wis"], [["e", "ither</w>"], "either</w>"], [["sha", "d"], "shad"], [["qui", "ck"], "quick"], [["Be", "ing</w>"], "Being</w>"], [["it", "y.</w>"], "ity.</w>"], [["na", "me,</w>"], "name,</w>"], [["AL", "L.</w>"], "ALL.</w>"], [["i", "ce,</w>"], "ice,</w>"], [["C", "o"], "Co"], [["KATH", "ER"], "KATHER"], [["B", "I"], "BI"], [["PED", "RO.</w>"], "PEDRO.</w>"], [["BENED", "ICK.</w>"], "BENEDICK.</w>"], [["JUL", "I"], "JULI"], [["lov", "ed</w>"], "loved</w>"], [["th", "ir"], "thir"], [["PORTI", "A.</w>"], "PORTIA.</w>"], [["AR", "CI"], "ARCI"], [["ARCI", "T"], "ARCIT"], [["g", "one,</w>"], "gone,</w>"], [["B", "ea"], "Bea"], [["c", "es,</w>"], "ces,</w>"], [["e", "w</w>"], "ew</w>"], [["h", "ence</w>"], "hence</w>"], [["brea", "th</w>"], "breath</w>"], [["in", "deed</w>"], "indeed</w>"], [["gener", "al</w>"], "general</w>"], [["O", "n"], "On"], [["c", "al"], "cal"], [["do", ".</w>"], "do.</w>"], [["ck", "ing"], "cking"], [["ARCIT", "E.</w>"], "ARCITE.</w>"], [["d", "eep</w>"], "deep</w>"], [["se", "e,</w>"], "see,</w>"], [["husb", "and</w>"], "husband</w>"], [["m", "ing</w>"], "ming</w>"], [["wif", "e,</w>"], "wife,</w>"], [["chil", "dr"], "childr"], [["wi", "l"], "wil"], [["gla", "d</w>"], "glad</w>"], [["ba", "se</w>"], "base</w>"], [["For", "tun"], "Fortun"], [["Su", "ff"], "Suff"], [["su", "re"], "sure"], [["m", "ir"], "mir"], [["P", "i"], "Pi"], [["indee", "d,</w>"], "indeed,</w>"], [["an", "ce,</w>"], "ance,</w>"], [["Go", "d,</w>"], "God,</w>"], [["P", "I"], "PI"], [["!", "\u201d</w>"], "!\u201d</w>"], [["Pro", "te"], "Prote"], [["C", "US.</w>"], "CUS.</w>"], [["TROIL", "US.</w>"], "TROILUS.</w>"], [["f", "res"], "fres"], [["be", "h"], "beh"], [["whi", "te</w>"], "white</w>"], [["bla", "ck</w>"], "black</w>"], [["d", "g"], "dg"], [["ca", "us"], "caus"], [["s", "y</w>"], "sy</w>"], [["in", "stru"], "instru"], [["f", "ree</w>"], "free</w>"], [["dev", "il</w>"], "devil</w>"], [["S", "ta"], "Sta"], [["f", "ly</w>"], "fly</w>"], [["R", "ea"], "Rea"], [["S", "OL"], "SOL"], [["Rom", "e.</w>"], "Rome.</w>"], [["mur", "der"], "murder"], [["Lad", "y</w>"], "Lady</w>"], [["AN", "G"], "ANG"], [["TIT", "US.</w>"], "TITUS.</w>"], [["reme", "mb"], "rememb"], [["Do", "th</w>"], "Doth</w>"], [["b", "est"], "best"], [["d", "er,</w>"], "der,</w>"], [["ho", "t</w>"], "hot</w>"], [["er", "\u2019s</w>"], "er\u2019s</w>"], [["sp", "ec"], "spec"], [["cl", "ou"], "clou"], [["li", "ber"], "liber"], [["m", "p</w>"], "mp</w>"], [["a", "ch</w>"], "ach</w>"], [["t", "ch</w>"], "tch</w>"], [["EN", "CE.</w>"], "ENCE.</w>"], [["cl", "u"], "clu"], [["B", "a"], "Ba"], [["Y", "ea,</w>"], "Yea,</w>"], [["AN", "S.</w>"], "ANS.</w>"], [["Ca", "st"], "Cast"], [["M", "AL"], "MAL"], [["IS", "ABELLA.</w>"], "ISABELLA.</w>"], [["po", "ss"], "poss"], [["st", "s</w>"], "sts</w>"], [["ma", "id"], "maid"], [["ar", "e,</w>"], "are,</w>"], [["l", "th</w>"], "lth</w>"], [["comfor", "t</w>"], "comfort</w>"], [["te", "d.</w>"], "ted.</w>"], [["foo", "t</w>"], "foot</w>"], [["n", "ess"], "ness"], [["Fran", "ce,</w>"], "France,</w>"], [["ma", "ster,</w>"], "master,</w>"], [["res", "ol"], "resol"], [["ch", "ance</w>"], "chance</w>"], [["V", "en"], "Ven"], [["H", "o"], "Ho"], [["Le", "on"], "Leon"], [["Fal", "sta"], "Falsta"], [["KEN", "T.</w>"], "KENT.</w>"], [["husb", "and"], "husband"], [["ha", "ving</w>"], "having</w>"], [["mor", "tal</w>"], "mortal</w>"], [["re", "cei"], "recei"], [["s", "sa"], "ssa"], [["lo", "a"], "loa"], [["gr", "oun"], "groun"], [["re", "w</w>"], "rew</w>"], [["fell", "ow"], "fellow"], [["lo", "y"], "loy"], [["quar", "re"], "quarre"], [["now", "?</w>"], "now?</w>"], [["H", "or"], "Hor"], [["Ed", "war"], "Edwar"], [["AT", "O.</w>"], "ATO.</w>"], [["pa", "y</w>"], "pay</w>"], [["er", "ed</w>"], "ered</w>"], [["coun", "ter"], "counter"], [["ch", "ang"], "chang"], [["W", "or"], "Wor"], [["hor", "se</w>"], "horse</w>"], [["e", "t.</w>"], "et.</w>"], [["i", "f"], "if"], [["f", "ing"], "fing"], [["cr", "own</w>"], "crown</w>"], [["g", "er</w>"], "ger</w>"], [["wr", "ong</w>"], "wrong</w>"], [["h", "en"], "hen"], [["Go", "d\u2019s</w>"], "God\u2019s</w>"], [["hous", "e,</w>"], "house,</w>"], [["end", "ed</w>"], "ended</w>"], [["et", "ch</w>"], "etch</w>"], [["S", "EN"], "SEN"], [["us", ";</w>"], "us;</w>"], [["Richar", "d</w>"], "Richard</w>"], [["I", "S.</w>"], "IS.</w>"], [["G", "H"], "GH"], [["ce", "p"], "cep"], [["fa", "shi"], "fashi"], [["virtu", "e</w>"], "virtue</w>"], [["soul", ",</w>"], "soul,</w>"], [["pa", "ss"], "pass"], [["tru", "st</w>"], "trust</w>"], [["swor", "n</w>"], "sworn</w>"], [["King", "\u2019s</w>"], "King\u2019s</w>"], [["u", "m"], "um"], [["su", "d"], "sud"], [["R", "ome</w>"], "Rome</w>"], [["us", "\u2019</w>"], "us\u2019</w>"], [["S", "IC"], "SIC"], [["PI", "ST"], "PIST"], [["T", "A.</w>"], "TA.</w>"], [["JULI", "ET.</w>"], "JULIET.</w>"], [["LEON", "TES.</w>"], "LEONTES.</w>"], [["s", "ma"], "sma"], [["pra", "ise</w>"], "praise</w>"], [["g", "o,</w>"], "go,</w>"], [["w", "ant</w>"], "want</w>"], [["sl", "eep</w>"], "sleep</w>"], [["stan", "ds</w>"], "stands</w>"], [["reme", "mber</w>"], "remember</w>"], [["wha", "t\u2019s</w>"], "what\u2019s</w>"], [["b", "al"], "bal"], [["d", "._]</w>"], "d._]</w>"], [["le", "tter</w>"], "letter</w>"], [["Eng", "lish</w>"], "English</w>"], [["e", "ce</w>"], "ece</w>"], [["Bru", "t"], "Brut"], [["T", "y"], "Ty"], [["C", "lar"], "Clar"], [["Ma", "c"], "Mac"], [["P", "EM"], "PEM"], [["G", "ON"], "GON"], [["Y", "M"], "YM"], [["PER", "IC"], "PERIC"], [["ch", "ur"], "chur"], [["ha", "te</w>"], "hate</w>"], [["ha", "ve,</w>"], "have,</w>"], [["om", ",</w>"], "om,</w>"], [["se", "con"], "secon"], [["cour", "t</w>"], "court</w>"], [["V", "IOL"], "VIOL"], [["S", "ol"], "Sol"], [["n", "ess.</w>"], "ness.</w>"], [["be", "l"], "bel"], [["la", "w</w>"], "law</w>"], [["po", "in"], "poin"], [["ther", "e.</w>"], "there.</w>"], [["di", "sh"], "dish"], [["Ch", "ri"], "Chri"], [["PIST", "OL.</w>"], "PISTOL.</w>"], [["ey", "e,</w>"], "eye,</w>"], [["of", "ten</w>"], "often</w>"], [["l", "st</w>"], "lst</w>"], [["ligh", "t,</w>"], "light,</w>"], [["sh", "ar"], "shar"], [["off", "ic"], "offic"], [["d", "own,</w>"], "down,</w>"], [["re", "w"], "rew"], [["spo", "ke</w>"], "spoke</w>"], [["fur", "ther</w>"], "further</w>"], [["Her", "e,</w>"], "Here,</w>"], [["k", "no"], "kno"], [["y", "et,</w>"], "yet,</w>"], [["Eng", "land</w>"], "England</w>"], [["E", "D.</w>"], "ED.</w>"], [["purpo", "se</w>"], "purpose</w>"], [["re", "turn</w>"], "return</w>"], [["u", "lt</w>"], "ult</w>"], [["di", "st"], "dist"], [["awa", "y,</w>"], "away,</w>"], [["st", "ing</w>"], "sting</w>"], [["f", "ol"], "fol"], [["call", "ed</w>"], "called</w>"], [["Fare", "well,</w>"], "Farewell,</w>"], [["F", "ir"], "Fir"], [["Fa", "i"], "Fai"], [["spea", "k.</w>"], "speak.</w>"], [["sa", "id,</w>"], "said,</w>"], [["M", "esseng"], "Messeng"], [["X", ".</w>"], "X.</w>"], [["S", "il"], "Sil"], [["OR", "L"], "ORL"], [["ORL", "AND"], "ORLAND"], [["PH", ".</w>"], "PH.</w>"], [["TH", "ES"], "THES"], [["UR", "S"], "URS"], [["VIOL", "A.</w>"], "VIOLA.</w>"], [["con", "qu"], "conqu"], [["cour", "se</w>"], "course</w>"], [["da", "ys</w>"], "days</w>"], [["pla", "y"], "play"], [["an", ".</w>"], "an.</w>"], [["o", "?</w>"], "o?</w>"], [["Anton", "i"], "Antoni"], [["doub", "t</w>"], "doubt</w>"], [["M", "A"], "MA"], [["ORLAND", "O.</w>"], "ORLANDO.</w>"], [["Tro", "il"], "Troil"], [["Yor", "k</w>"], "York</w>"], [["L", "E.</w>"], "LE.</w>"], [["LEON", "ATO.</w>"], "LEONATO.</w>"], [["wor", "k</w>"], "work</w>"], [["end", "ing</w>"], "ending</w>"], [["w", "ouldst</w>"], "wouldst</w>"], [["sa", "d</w>"], "sad</w>"], [["h", "oo"], "hoo"], [["v", "ol"], "vol"], [["er", "?</w>"], "er?</w>"], [["mar", "k</w>"], "mark</w>"], [["g", "one.</w>"], "gone.</w>"], [["di", "v"], "div"], [["po", "ssi"], "possi"], [["ho", "!</w>"], "ho!</w>"], [["F", "ri"], "Fri"], [["_", ",</w>"], "_,</w>"], [["IM", "OG"], "IMOG"], [["Suff", "ol"], "Suffol"], [["THES", "EUS.</w>"], "THESEUS.</w>"], [["PERIC", "LES.</w>"], "PERICLES.</w>"], [["S", "PE"], "SPE"], [["S", "I"], "SI"], [["pa", "ir</w>"], "pair</w>"], [["a", "ge,</w>"], "age,</w>"], [["li", "ve,</w>"], "live,</w>"], [["p", "at"], "pat"], [["op", "en</w>"], "open</w>"], [["il", "y</w>"], "ily</w>"], [["lov", "ing</w>"], "loving</w>"], [["Spea", "k</w>"], "Speak</w>"], [["tt", "ing</w>"], "tting</w>"], [["whol", "e</w>"], "whole</w>"], [["S", "P"], "SP"], [["IMOG", "EN.</w>"], "IMOGEN.</w>"], [["s", "bur"], "sbur"], [["OLIV", "IA.</w>"], "OLIVIA.</w>"], [["ex", "ecu"], "execu"], [["a", "-"], "a-"], [["g", "in"], "gin"], [["ene", "mi"], "enemi"], [["f", ",</w>"], "f,</w>"], [["st", "ee"], "stee"], [["wre", "tch"], "wretch"], [["er", "i"], "eri"], [["thin", "k,</w>"], "think,</w>"], [["ma", "d</w>"], "mad</w>"], [["s", "ound</w>"], "sound</w>"], [["car", "ri"], "carri"], [["that", "?</w>"], "that?</w>"], [["sa", "tis"], "satis"], [["le", ";</w>"], "le;</w>"], [["liv", "er</w>"], "liver</w>"], [["m", "\u2019d</w>"], "m\u2019d</w>"], [["p", "her"], "pher"], [["SIC", "INIUS.</w>"], "SICINIUS.</w>"], [["SPE", "ED.</w>"], "SPEED.</w>"], [["war", "</w>"], "war</w>"], [["su", "p"], "sup"], [["ran", "s"], "rans"], [["lea", "d</w>"], "lead</w>"], [["fla", "tter"], "flatter"], [["ar", "ds</w>"], "ards</w>"], [["d", "one.</w>"], "done.</w>"], [["d", "est</w>"], "dest</w>"], [["de", "m"], "dem"], [["u", "te</w>"], "ute</w>"], [["Gent", "le"], "Gentle"], [["ck", "\u2019d</w>"], "ck\u2019d</w>"], [["o", "c"], "oc"], [["\u2019", "d;</w>"], "\u2019d;</w>"], [["ol", "ph"], "olph"], [["dang", "er"], "danger"], [[".", "\u2014</w>"], ".\u2014</w>"], [["C", "le"], "Cle"], [["CH", "AR"], "CHAR"], [["a", "\u2019s</w>"], "a\u2019s</w>"], [["CH", ".</w>"], "CH.</w>"], [["G", "U"], "GU"], [["ANG", "EL"], "ANGEL"], [["B", "RO"], "BRO"], [["P", "ROS"], "PROS"], [["PROS", "PER"], "PROSPER"], [["pla", "ce,</w>"], "place,</w>"], [["lo", "ver"], "lover"], [["ow", "ing</w>"], "owing</w>"], [["pre", "tty</w>"], "pretty</w>"], [["m", "es</w>"], "mes</w>"], [["my", "self,</w>"], "myself,</w>"], [["si", "mp"], "simp"], [["v", "ile</w>"], "vile</w>"], [["dr", "un"], "drun"], [["bea", "t</w>"], "beat</w>"], [["vali", "ant</w>"], "valiant</w>"], [["on", "i"], "oni"], [["si", "on"], "sion"], [["AR", "B"], "ARB"], [["S", "igni"], "Signi"], [["Bu", "cking"], "Bucking"], [["Bucking", "ha"], "Buckingha"], [["PROSPER", "O.</w>"], "PROSPERO.</w>"], [["L", "ea"], "Lea"], [["de", "b"], "deb"], [["fe", "ll</w>"], "fell</w>"], [["j", "ur"], "jur"], [["subj", "ec"], "subjec"], [["s", "wa"], "swa"], [["yi", "eld</w>"], "yield</w>"], [["ne", "ither</w>"], "neither</w>"], [["D", "ra"], "Dra"], [["go", "ver"], "gover"], [["si", "c"], "sic"], [["min", "i"], "mini"], [["so", ";</w>"], "so;</w>"], [["us", "!</w>"], "us!</w>"], [["f", "our</w>"], "four</w>"], [["Th", "ere"], "There"], [["bo", "ld</w>"], "bold</w>"], [["EN", "OB"], "ENOB"], [["ENOB", "ARB"], "ENOBARB"], [["Th", "en,</w>"], "Then,</w>"], [["en", "d,</w>"], "end,</w>"], [["thy", "self</w>"], "thyself</w>"], [["di", "e.</w>"], "die.</w>"], [["servi", "ce</w>"], "service</w>"], [["sh", "e\u2019s</w>"], "she\u2019s</w>"], [["z", "en"], "zen"], [["ENOBARB", "US.</w>"], "ENOBARBUS.</w>"], [["ANGEL", "O.</w>"], "ANGELO.</w>"], [["LAN", "D.</w>"], "LAND.</w>"], [["k", "en"], "ken"], [["her", "e\u2019s</w>"], "here\u2019s</w>"], [["l", "y"], "ly"], [["you", "\u2019ll</w>"], "you\u2019ll</w>"], [["emb", "ra"], "embra"], [["SOL", "DI"], "SOLDI"], [["C", "all</w>"], "Call</w>"], [["An", "ti"], "Anti"], [["Lond", "on.</w>"], "London.</w>"], [["Tal", "bo"], "Talbo"], [["st", "y</w>"], "sty</w>"], [["chi", "ld</w>"], "child</w>"], [["c", "li"], "cli"], [["la", "ck</w>"], "lack</w>"], [["st", "on"], "ston"], [["wor", "se</w>"], "worse</w>"], [["d", "own"], "down"], [["di", "ff"], "diff"], [["see", "ms</w>"], "seems</w>"], [["il", "t</w>"], "ilt</w>"], [["cont", "in"], "contin"], [["p", "lo"], "plo"], [["O", "ff"], "Off"], [["pro", "f"], "prof"], [["mar", "ry</w>"], "marry</w>"], [["de", "d.</w>"], "ded.</w>"], [["S", "IL"], "SIL"], [["AT", "RI"], "ATRI"], [["CASS", "IO.</w>"], "CASSIO.</w>"], [["ever", "y"], "every"], [["sea", "</w>"], "sea</w>"], [["dr", "ed</w>"], "dred</w>"], [["w", "in</w>"], "win</w>"], [["ir", "e</w>"], "ire</w>"], [["fa", "ther.</w>"], "father.</w>"], [["t", "o,</w>"], "to,</w>"], [["s", "an"], "san"], [["wa", "y.</w>"], "way.</w>"], [["sp", "er"], "sper"], [["SOLDI", "ER.</w>"], "SOLDIER.</w>"], [["G", "u"], "Gu"], [["C", "y"], "Cy"], [["lan", "d.</w>"], "land.</w>"], [["P", "u"], "Pu"], [["ON", "E.</w>"], "ONE.</w>"], [["Mar", "ti"], "Marti"], [["Ha", "m"], "Ham"], [["O", "T"], "OT"], [["LUC", "IO.</w>"], "LUCIO.</w>"], [["F", "O"], "FO"], [["den", "y</w>"], "deny</w>"], [["es", "ti"], "esti"], [["y", "ears</w>"], "years</w>"], [["v", "es.</w>"], "ves.</w>"], [["is", "e,</w>"], "ise,</w>"], [["hang", "</w>"], "hang</w>"], [["g", "on"], "gon"], [["min", "e.</w>"], "mine.</w>"], [["C", "an"], "Can"], [["Be", "cause</w>"], "Because</w>"], [["dea", "d.</w>"], "dead.</w>"], [["N", "ever</w>"], "Never</w>"], [["li", "ps</w>"], "lips</w>"], [["O", "ut</w>"], "Out</w>"], [["cous", "in</w>"], "cousin</w>"], [["quo", "th</w>"], "quoth</w>"], [["ge", ";</w>"], "ge;</w>"], [["her", ";</w>"], "her;</w>"], [["i", "ti"], "iti"], [["Her", "e\u2019s</w>"], "Here\u2019s</w>"], [["Anton", "y</w>"], "Antony</w>"], [["a", "ch"], "ach"], [["B", "ard"], "Bard"], [["Bard", "olph"], "Bardolph"], [["el", ",</w>"], "el,</w>"], [["w", "ind"], "wind"], [["be", "d,</w>"], "bed,</w>"], [["L", "oo"], "Loo"], [["j", "e"], "je"], [["gr", "ow</w>"], "grow</w>"], [["fear", ",</w>"], "fear,</w>"], [["ne", "igh"], "neigh"], [["hun", "dred</w>"], "hundred</w>"], [["s", "in</w>"], "sin</w>"], [["d", "res"], "dres"], [["hear", "ts</w>"], "hearts</w>"], [["si", "ck</w>"], "sick</w>"], [["il", ".</w>"], "il.</w>"], [["r", "y.</w>"], "ry.</w>"], [["that", ".</w>"], "that.</w>"], [["da", "m.</w>"], "dam.</w>"], [["man", "?</w>"], "man?</w>"], [["D", "O"], "DO"], [["mer", "ry</w>"], "merry</w>"], [["Ju", "li"], "Juli"], [["C", "ELIA.</w>"], "CELIA.</w>"], [["fa", "ce,</w>"], "face,</w>"], [["them", "selves</w>"], "themselves</w>"], [["goo", "d,</w>"], "good,</w>"], [["know", "le"], "knowle"], [["d", "es</w>"], "des</w>"], [["cu", "se</w>"], "cuse</w>"], [["c", "ely</w>"], "cely</w>"], [[".", "\u2019</w>"], ".\u2019</w>"], [["ju", "st</w>"], "just</w>"], [["cu", "l"], "cul"], [["F", "E"], "FE"], [["natu", "ra"], "natura"], [["S", "o,</w>"], "So,</w>"], [["sh", "e,</w>"], "she,</w>"], [["or", "s,</w>"], "ors,</w>"], [["\u2019t", "was</w>"], "\u2019twas</w>"], [["migh", "ty</w>"], "mighty</w>"], [["Ro", "sal"], "Rosal"], [["HOR", "AT"], "HORAT"], [["HORAT", "IO.</w>"], "HORATIO.</w>"], [["Ear", "l</w>"], "Earl</w>"], [["L", "EN"], "LEN"], [["CT", "OR.</w>"], "CTOR.</w>"], [["BE", "ATRI"], "BEATRI"], [["JUL", "IA.</w>"], "JULIA.</w>"], [["ta", "kes</w>"], "takes</w>"], [["qua", "li"], "quali"], [["di", "ed</w>"], "died</w>"], [["e", "ther</w>"], "ether</w>"], [["ow", "s,</w>"], "ows,</w>"], [["B", "et"], "Bet"], [["T", "ow"], "Tow"], [["di", "spo"], "dispo"], [["kn", "igh"], "knigh"], [["foo", "l,</w>"], "fool,</w>"], [["ma", "id</w>"], "maid</w>"], [["!", "\u2014"], "!\u2014"], [["st", "om"], "stom"], [["s", "oo"], "soo"], [["no", "t?</w>"], "not?</w>"], [["[_", "They</w>"], "[_They</w>"], [["sh", "oul"], "shoul"], [["A", "V"], "AV"], [["Signi", "or</w>"], "Signior</w>"], [["K", "ing.</w>"], "King.</w>"], [["C", "ardin"], "Cardin"], [["BEATRI", "CE.</w>"], "BEATRICE.</w>"], [["t", "less</w>"], "tless</w>"], [["marri", "ed</w>"], "married</w>"], [["toge", "ther</w>"], "together</w>"], [["f", "ter</w>"], "fter</w>"], [["ea", "l"], "eal"], [["ar", "y</w>"], "ary</w>"], [["r", "ough</w>"], "rough</w>"], [["ar", ",</w>"], "ar,</w>"], [["di", "eu"], "dieu"], [["s", "m"], "sm"], [["Sol", "di"], "Soldi"], [["pra", "cti"], "practi"], [["no", "t;</w>"], "not;</w>"], [["he", "ld</w>"], "held</w>"], [["honoura", "ble</w>"], "honourable</w>"], [["hea", "d.</w>"], "head.</w>"], [["hi", "ther</w>"], "hither</w>"], [["Sa", "int</w>"], "Saint</w>"], [["pea", "ce,</w>"], "peace,</w>"], [["P", "OM"], "POM"], [["Hec", "tor"], "Hector"], [["M", "UR"], "MUR"], [["MUR", "DER"], "MURDER"], [["ti", "me.</w>"], "time.</w>"], [["u", "t"], "ut"], [["b", "re"], "bre"], [["d", "ow"], "dow"], [["pri", "v"], "priv"], [["en", "\u2019s</w>"], "en\u2019s</w>"], [["b", "y,</w>"], "by,</w>"], [["st", "ant</w>"], "stant</w>"], [["t", "ouch"], "touch"], [["s", "wif"], "swif"], [["ump", "h"], "umph"], [["e", "le"], "ele"], [["po", "int</w>"], "point</w>"], [["de", "d,</w>"], "ded,</w>"], [["a", "mb"], "amb"], [["af", "ter"], "after"], [["BER", "TR"], "BERTR"], [["well", ";</w>"], "well;</w>"], [["kn", "ee"], "knee"], [["d", "ful</w>"], "dful</w>"], [["f", "etch</w>"], "fetch</w>"], [["T", "ar"], "Tar"], [["p", "ect</w>"], "pect</w>"], [["c", "ity</w>"], "city</w>"], [["S", "om"], "Som"], [["M", "OR"], "MOR"], [["S", "AL"], "SAL"], [["EL", "IZ"], "ELIZ"], [["ELIZ", "A"], "ELIZA"], [["PRINC", "ESS.</w>"], "PRINCESS.</w>"], [["jud", "ge"], "judge"], [["pu", "bli"], "publi"], [["mo", "ve</w>"], "move</w>"], [["w", "eep</w>"], "weep</w>"], [["ca", "st</w>"], "cast</w>"], [["\u2019", "ring</w>"], "\u2019ring</w>"], [["fa", "ult</w>"], "fault</w>"], [["in", "k</w>"], "ink</w>"], [["deli", "ver"], "deliver"], [["wor", "d,</w>"], "word,</w>"], [["c", "ess</w>"], "cess</w>"], [["S", "ir"], "Sir"], [["musi", "c"], "music"], [["b", "ol"], "bol"], [["BERTR", "AM.</w>"], "BERTRAM.</w>"], [["s", "ent"], "sent"], [["POM", "PE"], "POMPE"], [["US", ",</w>"], "US,</w>"], [["ELIZA", "BETH.</w>"], "ELIZABETH.</w>"], [["AR", "M"], "ARM"], [["ARM", "AD"], "ARMAD"], [["ty", "ran"], "tyran"], [["mo", "ther,</w>"], "mother,</w>"], [["g", "ir"], "gir"], [["go", "ld</w>"], "gold</w>"], [["ac", "qua"], "acqua"], [["si", "ght</w>"], "sight</w>"], [["b", "lo"], "blo"], [["c", "us"], "cus"], [["sp", "a"], "spa"], [["b", "b"], "bb"], [["ta", "in,</w>"], "tain,</w>"], [["t", "on</w>"], "ton</w>"], [["an", "s,</w>"], "ans,</w>"], [["tru", "e.</w>"], "true.</w>"], [["COUN", "T"], "COUNT"], [["ad", "vi"], "advi"], [["w", "en"], "wen"], [["wom", "en</w>"], "women</w>"], [["drin", "k</w>"], "drink</w>"], [["peop", "le</w>"], "people</w>"], [["stri", "ke</w>"], "strike</w>"], [["V", "al"], "Val"], [["for", "d,</w>"], "ford,</w>"], [["H", "OT"], "HOT"], [["HOT", "SP"], "HOTSP"], [["ARMAD", "O.</w>"], "ARMADO.</w>"], [["A", "PEM"], "APEM"], [["APEM", "ANT"], "APEMANT"], [["TH", "E</w>"], "THE</w>"], [["M", "ine</w>"], "Mine</w>"], [["ta", "tion</w>"], "tation</w>"], [["o", "d"], "od"], [["G", "a"], "Ga"], [["secon", "d</w>"], "second</w>"], [["m", "s,</w>"], "ms,</w>"], [["for", "d</w>"], "ford</w>"], [["e", "d"], "ed"], [["bro", "ke</w>"], "broke</w>"], [["beg", "gar"], "beggar"], [["ra", "h,</w>"], "rah,</w>"], [["cla", "im</w>"], "claim</w>"], [["daugh", "ter,</w>"], "daughter,</w>"], [["er", "\u2019d</w>"], "er\u2019d</w>"], [["j", "esty</w>"], "jesty</w>"], [["POMPE", "Y.</w>"], "POMPEY.</w>"], [["Wh", "o,</w>"], "Who,</w>"], [["P", "O"], "PO"], [["B", "ARD"], "BARD"], [["BARD", "OL"], "BARDOL"], [["HOTSP", "UR.</w>"], "HOTSPUR.</w>"], [["Yor", "k,</w>"], "York,</w>"], [["Som", "er"], "Somer"], [["BAST", "ARD.</w>"], "BASTARD.</w>"], [["MURDER", "ER.</w>"], "MURDERER.</w>"], [["CAP", "U"], "CAPU"], [["N", "URS"], "NURS"], [["APEMANT", "US.</w>"], "APEMANTUS.</w>"], [["gol", "den</w>"], "golden</w>"], [["n", "on"], "non"], [["be", "hold</w>"], "behold</w>"], [["pp", "ed</w>"], "pped</w>"], [["par", "ti"], "parti"], [["ar", "d,</w>"], "ard,</w>"], [["th", "en.</w>"], "then.</w>"], [["COUNT", "ESS.</w>"], "COUNTESS.</w>"], [["M", "or"], "Mor"], [["ent", "reat</w>"], "entreat</w>"], [["W", "al"], "Wal"], [["ED", "G"], "EDG"], [["EDG", "AR.</w>"], "EDGAR.</w>"], [["NURS", "E.</w>"], "NURSE.</w>"], [["SE", "BAST"], "SEBAST"], [["P", "A"], "PA"], [["no", "te</w>"], "note</w>"], [["gri", "ev"], "griev"], [["hi", "de</w>"], "hide</w>"], [["sp", "ur"], "spur"], [["fi", "ve</w>"], "five</w>"], [["po", "li"], "poli"], [["ba", "d</w>"], "bad</w>"], [["Un", "der</w>"], "Under</w>"], [["LA", "FE"], "LAFE"], [["ma", "i"], "mai"], [["lor", "d;</w>"], "lord;</w>"], [["St", "and</w>"], "Stand</w>"], [["pi", "ece</w>"], "piece</w>"], [["cous", "in,</w>"], "cousin,</w>"], [["cen", "ti"], "centi"], [["m", "un"], "mun"], [["S", "</w>"], "S</w>"], [["i", "es</w>"], "ies</w>"], [["f", "y</w>"], "fy</w>"], [["men", "\u2019s</w>"], "men\u2019s</w>"], [["je", "wel"], "jewel"], [["saf", "e</w>"], "safe</w>"], [["ru", "p"], "rup"], [["wh", "er"], "wher"], [["t", "each</w>"], "teach</w>"], [["tru", "th,</w>"], "truth,</w>"], [["w", "ee"], "wee"], [["an", "ce.</w>"], "ance.</w>"], [["abo", "ve</w>"], "above</w>"], [["b", "ree"], "bree"], [["thr", "ow</w>"], "throw</w>"], [["DUK", "E</w>"], "DUKE</w>"], [["LAFE", "W.</w>"], "LAFEW.</w>"], [["ing", "-"], "ing-"], [["F", "lou"], "Flou"], [["Flou", "ri"], "Flouri"], [["in", ";</w>"], "in;</w>"], [["Fai", "th,</w>"], "Faith,</w>"], [["st", "oo"], "stoo"], [["un", "cl"], "uncl"], [["\u2019t", "were</w>"], "\u2019twere</w>"], [["T", "ur"], "Tur"], [["din", "n"], "dinn"], [["m", "et</w>"], "met</w>"], [["r", "om"], "rom"], [["vi", "si"], "visi"], [["Eng", "land"], "England"], [["Ed", "ward</w>"], "Edward</w>"], [["L", "Y.</w>"], "LY.</w>"], [["SEBAST", "IAN.</w>"], "SEBASTIAN.</w>"], [["en", "ds</w>"], "ends</w>"], [["hour", "s</w>"], "hours</w>"], [["ma", "y"], "may"], [["com", "ing</w>"], "coming</w>"], [["pre", "par"], "prepar"], [["der", "i"], "deri"], [["se", "d.</w>"], "sed.</w>"], [["ar", "gu"], "argu"], [["F", "R"], "FR"], [["an", "t,</w>"], "ant,</w>"], [["In", "to</w>"], "Into</w>"], [["ther", "e?</w>"], "there?</w>"], [["i", "ol"], "iol"], [["op", "ini"], "opini"], [["hi", "ther,</w>"], "hither,</w>"], [["i", "ce.</w>"], "ice.</w>"], [["BA", "SS"], "BASS"], [["c", "ir"], "cir"], [["BARDOL", "PH.</w>"], "BARDOLPH.</w>"], [["D", "AU"], "DAU"], [["Mar", "gar"], "Margar"], [["BRO", "K"], "BROK"], [["ch", "ill"], "chill"], [["M", "ER"], "MER"], [["fres", "h</w>"], "fresh</w>"], [["D", "is"], "Dis"], [["musi", "c</w>"], "music</w>"], [["plea", "sure</w>"], "pleasure</w>"], [["sh", "ows</w>"], "shows</w>"], [["mistres", "s</w>"], "mistress</w>"], [["the", "e;</w>"], "thee;</w>"], [["c", "un"], "cun"], [["v", "el</w>"], "vel</w>"], [["ck", "ing</w>"], "cking</w>"], [["s", "es,</w>"], "ses,</w>"], [["si", "e"], "sie"], [["sh", "es</w>"], "shes</w>"], [["plu", "ck</w>"], "pluck</w>"], [["ma", "d"], "mad"], [["we", "igh"], "weigh"], [["k", "s.</w>"], "ks.</w>"], [["ma", "li"], "mali"], [["T", "u"], "Tu"], [["k", "!</w>"], "k!</w>"], [["my", "self.</w>"], "myself.</w>"], [["spea", "ks</w>"], "speaks</w>"], [["Caesar", ",</w>"], "Caesar,</w>"], [["mon", "ey</w>"], "money</w>"], [["th", "ro"], "thro"], [["Warwi", "ck,</w>"], "Warwick,</w>"], [["bl", "ess</w>"], "bless</w>"], [["ma", "jest"], "majest"], [["ke", "pt</w>"], "kept</w>"], [["\u2019", "gainst</w>"], "\u2019gainst</w>"], [["po", "se</w>"], "pose</w>"], [["pla", "in</w>"], "plain</w>"], [["f", "oun"], "foun"], [["Un", "less</w>"], "Unless</w>"], [["ow", "?</w>"], "ow?</w>"], [["me", "di"], "medi"], [["wa", "ys</w>"], "ways</w>"], [["f", "er"], "fer"], [["Wh", "om</w>"], "Whom</w>"], [["Po", "or</w>"], "Poor</w>"], [["t", "ouch</w>"], "touch</w>"], [["hom", "e,</w>"], "home,</w>"], [["wom", "an,</w>"], "woman,</w>"], [["es", "._]</w>"], "es._]</w>"], [["yi", "el"], "yiel"], [["A", "b"], "Ab"], [["E", "V"], "EV"], [["CAPU", "LET.</w>"], "CAPULET.</w>"], [["With", "in</w>"], "Within</w>"], [["Th", "ose</w>"], "Those</w>"], [["per", "ceive</w>"], "perceive</w>"], [["fa", "c"], "fac"], [["b", "ears</w>"], "bears</w>"], [["b", "s</w>"], "bs</w>"], [["fles", "h</w>"], "flesh</w>"], [["fee", "l</w>"], "feel</w>"], [["w", "ent</w>"], "went</w>"], [["off", ",</w>"], "off,</w>"], [["v", "ell"], "vell"], [["m", "our"], "mour"], [["wor", "ds,</w>"], "words,</w>"], [["up", ".</w>"], "up.</w>"], [["y", "ra"], "yra"], [["bo", "y</w>"], "boy</w>"], [["wal", "k</w>"], "walk</w>"], [["pala", "ce.</w>"], "palace.</w>"], [["Du", "k"], "Duk"], [["att", "end</w>"], "attend</w>"], [["ing", "s.</w>"], "ings.</w>"], [["p", ".</w>"], "p.</w>"], [["Lor", "d,</w>"], "Lord,</w>"], [["sa", "y.</w>"], "say.</w>"], [["wif", "e.</w>"], "wife.</w>"], [["dish", "on"], "dishon"], [["wh", "or"], "whor"], [["ar", "m</w>"], "arm</w>"], [["B", "as"], "Bas"], [["\u2019e", "m</w>"], "\u2019em</w>"], [["G", "ree"], "Gree"], [["TH", "ER"], "THER"], [["BUR", "Y.</w>"], "BURY.</w>"], [["C", "AM"], "CAM"], [["A", "chill"], "Achill"], [["te", "ous</w>"], "teous</w>"], [["us", "ur"], "usur"], [["\u2019", "r"], "\u2019r"], [["pa", "st</w>"], "past</w>"], [["streng", "th</w>"], "strength</w>"], [["tt", "en</w>"], "tten</w>"], [["spea", "k,</w>"], "speak,</w>"], [["po", "si"], "posi"], [["vo", "ice</w>"], "voice</w>"], [["sever", "al</w>"], "several</w>"], [["ear", "s.</w>"], "ears.</w>"], [["for", ",</w>"], "for,</w>"], [["sc", "al"], "scal"], [["jo", "in"], "join"], [["in", "no"], "inno"], [["Rom", "an</w>"], "Roman</w>"], [["unc", "le</w>"], "uncle</w>"], [["Joh", "n,</w>"], "John,</w>"], [["G", "e"], "Ge"], [["BROK", "E.</w>"], "BROKE.</w>"], [["E", "T"], "ET"], [["M", "O"], "MO"], [["mb", "</w>"], "mb</w>"], [["sha", "p"], "shap"], [["du", "ty</w>"], "duty</w>"], [["g", "es</w>"], "ges</w>"], [["Do", "st</w>"], "Dost</w>"], [["fu", "lly</w>"], "fully</w>"], [["sl", "and"], "sland"], [["D", "ea"], "Dea"], [["er", "ing</w>"], "ering</w>"], [["su", "it</w>"], "suit</w>"], [["Whi", "ch,</w>"], "Which,</w>"], [["mer", "cy</w>"], "mercy</w>"], [["ac", "t</w>"], "act</w>"], [["S", "en"], "Sen"], [["rea", "son"], "reason"], [["our", "s,</w>"], "ours,</w>"], [["grea", "t"], "great"], [["tion", ";</w>"], "tion;</w>"], [["There", "fore,</w>"], "Therefore,</w>"], [["co", "ver"], "cover"], [["bu", "y</w>"], "buy</w>"], [["wor", "d.</w>"], "word.</w>"], [["us", "._]</w>"], "us._]</w>"], [["Cor", "iol"], "Coriol"], [["AT", "OR.</w>"], "ATOR.</w>"], [["ON", "IUS.</w>"], "ONIUS.</w>"], [["B", "AN"], "BAN"], [["L", "YS"], "LYS"], [["con", "si"], "consi"], [["ear", "th"], "earth"], [["ou", "ri"], "ouri"], [["cont", "ent"], "content"], [["ad", "vanta"], "advanta"], [["g", "rant</w>"], "grant</w>"], [["p", "he"], "phe"], [["v", "y</w>"], "vy</w>"], [["B", "er"], "Ber"], [["tion", "s,</w>"], "tions,</w>"], [["go", "d"], "god"], [["friend", "s.</w>"], "friends.</w>"], [["con", "clu"], "conclu"], [["b", "un"], "bun"], [["he", "\u2019ll</w>"], "he\u2019ll</w>"], [["A", "lex"], "Alex"], [["P", "la"], "Pla"], [["fi", "eld</w>"], "field</w>"], [["Glouces", "ter"], "Gloucester"], [["TR", "ANIO.</w>"], "TRANIO.</w>"], [["THER", "SI"], "THERSI"], [["liv", "ing</w>"], "living</w>"], [["Mar", "k</w>"], "Mark</w>"], [["With", "out</w>"], "Without</w>"], [["th", "ful</w>"], "thful</w>"], [["bless", "ed</w>"], "blessed</w>"], [["wri", "te</w>"], "write</w>"], [["sha", "ke</w>"], "shake</w>"], [["a", "ma"], "ama"], [["sur", "e.</w>"], "sure.</w>"], [["wea", "k</w>"], "weak</w>"], [["stran", "g"], "strang"], [["serv", "ant</w>"], "servant</w>"], [["res", "t,</w>"], "rest,</w>"], [["ig", "nor"], "ignor"], [["P", "hi"], "Phi"], [["end", "er</w>"], "ender</w>"], [["ch", "ed</w>"], "ched</w>"], [["excell", "ent</w>"], "excellent</w>"], [["passi", "on</w>"], "passion</w>"], [["Se", "e</w>"], "See</w>"], [["letter", "s</w>"], "letters</w>"], [["oc", "ca"], "occa"], [["Sil", "vi"], "Silvi"], [["Pea", "ce,</w>"], "Peace,</w>"], [["AD", "RI"], "ADRI"], [["Sa", "li"], "Sali"], [["THERSI", "TES.</w>"], "THERSITES.</w>"], [["di", "e,</w>"], "die,</w>"], [["well", "-"], "well-"], [["un", "t</w>"], "unt</w>"], [["kn", "ess</w>"], "kness</w>"], [["a", "la"], "ala"], [["me", ":</w>"], "me:</w>"], [["you", "th,</w>"], "youth,</w>"], [["wat", "er</w>"], "water</w>"], [["mo", "ther"], "mother"], [["ear", "th,</w>"], "earth,</w>"], [["in", "s,</w>"], "ins,</w>"], [["pla", "ce.</w>"], "place.</w>"], [["f", "ru"], "fru"], [["li", "ev"], "liev"], [["st", "?</w>"], "st?</w>"], [["f", "le"], "fle"], [["Th", "an"], "Than"], [["comm", "and</w>"], "command</w>"], [["\u2019", "s,</w>"], "\u2019s,</w>"], [["o", "!</w>"], "o!</w>"], [["ma", "dam.</w>"], "madam.</w>"], [["cont", "ent</w>"], "content</w>"], [["Fran", "ce.</w>"], "France.</w>"], [["DEM", "E"], "DEME"], [["DEME", "TR"], "DEMETR"], [["DEMETR", "IUS.</w>"], "DEMETRIUS.</w>"], [["B", "ol"], "Bol"], [["P", "OST"], "POST"], [["TH", "UM"], "THUM"], [["Warwi", "ck</w>"], "Warwick</w>"], [["I", "P"], "IP"], [["RE", "G"], "REG"], [["T", "im"], "Tim"], [["bu", "ri"], "buri"], [["gra", "ve</w>"], "grave</w>"], [["2", "</w>"], "2</w>"], [["da", "y"], "day"], [["vi", "ctor"], "victor"], [["ous", "ly</w>"], "ously</w>"], [["e", "ts</w>"], "ets</w>"], [["lo", "ss</w>"], "loss</w>"], [["ba", "ck"], "back"], [["sh", "ow"], "show"], [["pro", "cee"], "procee"], [["la", "id</w>"], "laid</w>"], [["que", "en</w>"], "queen</w>"], [["ta", "in.</w>"], "tain.</w>"], [["k", ";</w>"], "k;</w>"], [["bu", "t,</w>"], "but,</w>"], [["st", "ood</w>"], "stood</w>"], [["repor", "t</w>"], "report</w>"], [["ci", "ent</w>"], "cient</w>"], [["Brut", "us</w>"], "Brutus</w>"], [["emp", "er"], "emper"], [["le", "t,</w>"], "let,</w>"], [["H", "UM"], "HUM"], [["NOR", "THUM"], "NORTHUM"], [["NORTHUM", "BER"], "NORTHUMBER"], [["L", "an"], "Lan"], [["F", "L"], "FL"], [["CL", "I"], "CLI"], [["S", "IM"], "SIM"], [["AN", "NE.</w>"], "ANNE.</w>"], [["AND", "RE"], "ANDRE"], [["min", "d,</w>"], "mind,</w>"], [["fa", "st</w>"], "fast</w>"], [["on", "\u2019s</w>"], "on\u2019s</w>"], [["woman", "\u2019s</w>"], "woman\u2019s</w>"], [["p", "ing</w>"], "ping</w>"], [["pal", "e</w>"], "pale</w>"], [["c", "ess"], "cess"], [["is", "\u2019t</w>"], "is\u2019t</w>"], [["si", "de,</w>"], "side,</w>"], [["swor", "d,</w>"], "sword,</w>"], [["mo", "ck</w>"], "mock</w>"], [["a", "mp"], "amp"], [["neigh", "b"], "neighb"], [["w", ",</w>"], "w,</w>"], [["comp", "ani"], "compani"], [["th", "rea"], "threa"], [["A", "way,</w>"], "Away,</w>"], [["coun", "try</w>"], "country</w>"], [["then", "?</w>"], "then?</w>"], [["Wh", "ere\u2019s</w>"], "Where\u2019s</w>"], [["E", "X"], "EX"], [["HOST", "ESS.</w>"], "HOSTESS.</w>"], [["F", "ER"], "FER"], [["ANDRE", "W.</w>"], "ANDREW.</w>"], [["MAL", "VOLIO.</w>"], "MALVOLIO.</w>"], [["sha", "me,</w>"], "shame,</w>"], [["f", "it"], "fit"], [["fa", "ir,</w>"], "fair,</w>"], [["coun", "t</w>"], "count</w>"], [["t", "wi"], "twi"], [["lov", "e\u2019s</w>"], "love\u2019s</w>"], [["ha", "ste</w>"], "haste</w>"], [["al", "one.</w>"], "alone.</w>"], [["chi", "ef"], "chief"], [["fu", "l"], "ful"], [["ey", "es.</w>"], "eyes.</w>"], [["j", "eal"], "jeal"], [["king", "dom"], "kingdom"], [["l", "est</w>"], "lest</w>"], [["car", "ry</w>"], "carry</w>"], [["spiri", "ts</w>"], "spirits</w>"], [["diff", "er"], "differ"], [["b", "ow"], "bow"], [["h", "ell"], "hell"], [["foo", "lish</w>"], "foolish</w>"], [["T", "w"], "Tw"], [["id", "es,</w>"], "ides,</w>"], [["pla", "in"], "plain"], [["c", "oura"], "coura"], [["fortun", "es</w>"], "fortunes</w>"], [["him", "self,</w>"], "himself,</w>"], [["con", "di"], "condi"], [["H", "ear</w>"], "Hear</w>"], [["BO", "Y"], "BOY"], [["[_", "He</w>"], "[_He</w>"], [["POL", "ONIUS.</w>"], "POLONIUS.</w>"], [["NORTHUMBER", "LAND.</w>"], "NORTHUMBERLAND.</w>"], [["M", "ON"], "MON"], [["tow", "ard</w>"], "toward</w>"], [["S", "ee"], "See"], [["h", "y"], "hy"], [["be", "for"], "befor"], [["the", "e?</w>"], "thee?</w>"], [["be", "cause</w>"], "because</w>"], [["fir", "e,</w>"], "fire,</w>"], [["le", "-"], "le-"], [["que", "en,</w>"], "queen,</w>"], [["ma", "in"], "main"], [["imp", "or"], "impor"], [["st", "ers</w>"], "sters</w>"], [["fu", "ll"], "full"], [["worl", "d.</w>"], "world.</w>"], [["her", "?</w>"], "her?</w>"], [["e", "d;</w>"], "ed;</w>"], [["F", "o"], "Fo"], [["the", "e!</w>"], "thee!</w>"], [["i", "us</w>"], "ius</w>"], [["s", "ca"], "sca"], [["she", "pher"], "shepher"], [["C", "lif"], "Clif"], [["I", "G"], "IG"], [["ENT", "IO.</w>"], "ENTIO.</w>"], [["C", "YM"], "CYM"], [["CYM", "BEL"], "CYMBEL"], [["\u2019", "st,</w>"], "\u2019st,</w>"], [["sa", "ke,</w>"], "sake,</w>"], [["pa", "per"], "paper"], [["wer", "t</w>"], "wert</w>"], [["ir", "s</w>"], "irs</w>"], [["Ar", "t</w>"], "Art</w>"], [["le", "m"], "lem"], [["st", "ard</w>"], "stard</w>"], [["ch", "ing</w>"], "ching</w>"], [["e", "qu"], "equ"], [["th", "ing,</w>"], "thing,</w>"], [["pla", "gue</w>"], "plague</w>"], [["d", "eep"], "deep"], [["under", "stand</w>"], "understand</w>"], [["Ca", "p"], "Cap"], [["M", "y"], "My"], [["l", "ow"], "low"], [["p", "un"], "pun"], [["bloo", "d.</w>"], "blood.</w>"], [["Tha", "t,</w>"], "That,</w>"], [["M", "er"], "Mer"], [["Chri", "sti"], "Christi"], [["lie", "ge,</w>"], "liege,</w>"], [["app", "ear</w>"], "appear</w>"], [["Caesar", "\u2019s</w>"], "Caesar\u2019s</w>"], [["g", "y"], "gy"], [["Rom", "e,</w>"], "Rome,</w>"], [["L", "y"], "Ly"], [["go", "ds,</w>"], "gods,</w>"], [["cha", "mb"], "chamb"], [["SIL", "V"], "SILV"], [["SEN", "ATOR.</w>"], "SENATOR.</w>"], [["C", "OST"], "COST"], [["sum", "m"], "summ"], [["ques", "tion</w>"], "question</w>"], [["tongu", "e,</w>"], "tongue,</w>"], [["a", "ir</w>"], "air</w>"], [["n", "ur"], "nur"], [["re", "d,</w>"], "red,</w>"], [["en", "d.</w>"], "end.</w>"], [["ph", "y"], "phy"], [["conf", "ess</w>"], "confess</w>"], [["sa", "ke</w>"], "sake</w>"], [["Bo", "th</w>"], "Both</w>"], [["ti", "tle</w>"], "title</w>"], [["E", "re</w>"], "Ere</w>"], [["p", "ure</w>"], "pure</w>"], [["liv", "e.</w>"], "live.</w>"], [["goo", "dly</w>"], "goodly</w>"], [["hol", "ds</w>"], "holds</w>"], [["th", "?</w>"], "th?</w>"], [["st", "ed</w>"], "sted</w>"], [["sen", "se</w>"], "sense</w>"], [["Lo", "ve</w>"], "Love</w>"], [["a", "m,</w>"], "am,</w>"], [["I", "s"], "Is"], [["Off", "ic"], "Offic"], [["\u2019", "s.</w>"], "\u2019s.</w>"], [["ene", "m"], "enem"], [["man", ";</w>"], "man;</w>"], [["[_Asi", "de</w>"], "[_Aside</w>"], [["dee", "d,</w>"], "deed,</w>"], [["sel", "ves,</w>"], "selves,</w>"], [["ro", "gu"], "rogu"], [["B", "ur"], "Bur"], [["Bru", "tu"], "Brutu"], [["thou", "?</w>"], "thou?</w>"], [["IC", "K"], "ICK"], [["Falsta", "ff"], "Falstaff"], [["COST", "ARD.</w>"], "COSTARD.</w>"], [["EV", "ANS.</w>"], "EVANS.</w>"], [["Her", "mi"], "Hermi"], [["ter", "s</w>"], "ters</w>"], [["ll", "s</w>"], "lls</w>"], [["de", "cei"], "decei"], [["sti", "ll,</w>"], "still,</w>"], [["long", "er</w>"], "longer</w>"], [["your", "s</w>"], "yours</w>"], [["S", "ome"], "Some"], [["x", ",</w>"], "x,</w>"], [["al", "one</w>"], "alone</w>"], [["st", "ate,</w>"], "state,</w>"], [["cur", "se</w>"], "curse</w>"], [["ti", "l</w>"], "til</w>"], [["ex", "tre"], "extre"], [["fai", "th</w>"], "faith</w>"], [["s", "le"], "sle"], [["morr", "ow,</w>"], "morrow,</w>"], [["l", "end</w>"], "lend</w>"], [["e", "d?</w>"], "ed?</w>"], [["h", "ence,</w>"], "hence,</w>"], [["whi", "ch,</w>"], "which,</w>"], [["contin", "u"], "continu"], [["ene", "my</w>"], "enemy</w>"], [["k", "er"], "ker"], [["cour", "tes"], "courtes"], [["P", "or"], "Por"], [["on", "s,</w>"], "ons,</w>"], [["S", "l"], "Sl"], [["T", "EN"], "TEN"], [["Bol", "ing"], "Boling"], [["IC", "E.</w>"], "ICE.</w>"], [["Ge", "or"], "Geor"], [["K", "a"], "Ka"], [["ED", "M"], "EDM"], [["EDM", "UN"], "EDMUN"], [["KATHER", "INA.</w>"], "KATHERINA.</w>"], [["AR", "</w>"], "AR</w>"], [["g", "ard"], "gard"], [["ir", ".</w>"], "ir.</w>"], [["par", "t"], "part"], [["issu", "e</w>"], "issue</w>"], [["es", ":</w>"], "es:</w>"], [["A", "fter</w>"], "After</w>"], [["ap", "par"], "appar"], [["Whi", "le</w>"], "While</w>"], [["grea", "ter</w>"], "greater</w>"], [["gra", "ce,</w>"], "grace,</w>"], [["dire", "c"], "direc"], [["fear", "ful</w>"], "fearful</w>"], [["B", "ring</w>"], "Bring</w>"], [["com", "mon"], "common"], [["of", ".</w>"], "of.</w>"], [["call", "\u2019d</w>"], "call\u2019d</w>"], [["do", "g"], "dog"], [["re", "pu"], "repu"], [["up", "h"], "uph"], [["s", "and"], "sand"], [["CYMBEL", "INE.</w>"], "CYMBELINE.</w>"], [["Ma", "jest"], "Majest"], [["P", "UC"], "PUC"], [["ES", "CAL"], "ESCAL"], [["V", "ER"], "VER"], [["ta", "ble</w>"], "table</w>"], [["el", "ess</w>"], "eless</w>"], [["pro", "vi"], "provi"], [["publi", "c</w>"], "public</w>"], [["id", "es</w>"], "ides</w>"], [["ha", "dst</w>"], "hadst</w>"], [["om", ".</w>"], "om.</w>"], [["choo", "se</w>"], "choose</w>"], [["pur", "su"], "pursu"], [["ge", "?</w>"], "ge?</w>"], [["No", "thing</w>"], "Nothing</w>"], [["A", "c"], "Ac"], [["an", "d.</w>"], "and.</w>"], [["st", "ro"], "stro"], [["ship", ".</w>"], "ship.</w>"], [["hu", "mbl"], "humbl"], [["F", "are</w>"], "Fare</w>"], [["H", "u"], "Hu"], [["en", "?</w>"], "en?</w>"], [["hand", "s,</w>"], "hands,</w>"], [["v", "e;</w>"], "ve;</w>"], [["gr", "ound</w>"], "ground</w>"], [["de", "liver</w>"], "deliver</w>"], [["comp", "any</w>"], "company</w>"], [["d", "own.</w>"], "down.</w>"], [["prin", "ce</w>"], "prince</w>"], [["d", "er.</w>"], "der.</w>"], [["Un", "to</w>"], "Unto</w>"], [["ta", "\u2019en</w>"], "ta\u2019en</w>"], [["Leon", "at"], "Leonat"], [["N", "ON.</w>"], "NON.</w>"], [["Da", "uph"], "Dauph"], [["Sali", "sbur"], "Salisbur"], [["W", "OL"], "WOL"], [["WOL", "SE"], "WOLSE"], [["MO", "TH.</w>"], "MOTH.</w>"], [["MAC", "DU"], "MACDU"], [["SH", "Y"], "SHY"], [["SHY", "LO"], "SHYLO"], [["SHYLO", "C"], "SHYLOC"], [["DU", "CH"], "DUCH"], [["UL", "YS"], "ULYS"], [["ULYS", "SE"], "ULYSSE"], [["ULYSSE", "S.</w>"], "ULYSSES.</w>"], [["sto", "p</w>"], "stop</w>"], [["sti", "ll"], "still"], [["par", "ts</w>"], "parts</w>"], [["bos", "om</w>"], "bosom</w>"], [["hol", "d,</w>"], "hold,</w>"], [["e", "th</w>"], "eth</w>"], [["per", "su"], "persu"], [["res", "pec"], "respec"], [["hop", "e,</w>"], "hope,</w>"], [["ce", "\u2019s</w>"], "ce\u2019s</w>"], [["eff", "ec"], "effec"], [["m", "ble</w>"], "mble</w>"], [["e", "ful</w>"], "eful</w>"], [["e", "ed</w>"], "eed</w>"], [["wat", "ch</w>"], "watch</w>"], [["se", "!</w>"], "se!</w>"], [["in", "e.</w>"], "ine.</w>"], [["R", "a"], "Ra"], [["you", "!</w>"], "you!</w>"], [["de", "mon"], "demon"], [["al", "rea"], "alrea"], [["r", "ou"], "rou"], [["ar", "d.</w>"], "ard.</w>"], [["heaven", "s</w>"], "heavens</w>"], [["_", "]</w>"], "_]</w>"], [["PH", "IL"], "PHIL"], [["si", "ster</w>"], "sister</w>"], [["mor", "n"], "morn"], [["W", "AT"], "WAT"], [["prin", "cely</w>"], "princely</w>"], [["ADRI", "ANA.</w>"], "ADRIANA.</w>"], [["-", "enter</w>"], "-enter</w>"], [["POST", "HUM"], "POSTHUM"], [["I", "a"], "Ia"], [["ene", "di"], "enedi"], [["A", "TI"], "ATI"], [["Val", "ent"], "Valent"], [["Lan", "ca"], "Lanca"], [["Ha", "st"], "Hast"], [["CLI", "FF"], "CLIFF"], [["WOLSE", "Y.</w>"], "WOLSEY.</w>"], [["EDMUN", "D.</w>"], "EDMUND.</w>"], [["BOY", "ET.</w>"], "BOYET.</w>"], [["Mac", "be"], "Macbe"], [["MACDU", "FF.</w>"], "MACDUFF.</w>"], [["ESCAL", "US.</w>"], "ESCALUS.</w>"], [["SHYLOC", "K.</w>"], "SHYLOCK.</w>"], [["sh", "ouldst</w>"], "shouldst</w>"], [["l", "ow</w>"], "low</w>"], [["se", "mbl"], "sembl"], [["G", "reat</w>"], "Great</w>"], [["scor", "n</w>"], "scorn</w>"], [["\u2019", "n</w>"], "\u2019n</w>"], [["bor", "ne</w>"], "borne</w>"], [["an", "chol"], "anchol"], [["m", "esseng"], "messeng"], [["pati", "ence</w>"], "patience</w>"], [["C", "ould</w>"], "Could</w>"], [["ti", "c"], "tic"], [["cre", "di"], "credi"], [["den", "i"], "deni"], [["I", "II</w>"], "III</w>"], [["IV", "</w>"], "IV</w>"], [["war", "s</w>"], "wars</w>"], [["G", "et</w>"], "Get</w>"], [["P", "lea"], "Plea"], [["b", ",</w>"], "b,</w>"], [["cha", "mber</w>"], "chamber</w>"], [["him", "self.</w>"], "himself.</w>"], [["t", "ent</w>"], "tent</w>"], [["f", "igh"], "figh"], [["[_", "K"], "[_K"], [["goo", "d.</w>"], "good.</w>"], [["tomorr", "ow</w>"], "tomorrow</w>"], [["RE", "Y.</w>"], "REY.</w>"], [["V", "er"], "Ver"], [["C", "LO"], "CLO"], [["I", "ACH"], "IACH"], [["IACH", "IM"], "IACHIM"], [["sla", "ugh"], "slaugh"], [["LEN", "D"], "LEND"], [["W", "est"], "West"], [["ST", "AN"], "STAN"], [["HOR", "TEN"], "HORTEN"], [["sma", "ll</w>"], "small</w>"], [["st", "ly</w>"], "stly</w>"], [["sp", "ar"], "spar"], [["Th", "\u2019</w>"], "Th\u2019</w>"], [["off", "en"], "offen"], [["t", "ears,</w>"], "tears,</w>"], [["won", "der</w>"], "wonder</w>"], [["frien", "d.</w>"], "friend.</w>"], [["c", "ure</w>"], "cure</w>"], [["W", "ilt</w>"], "Wilt</w>"], [["es", "\u2019</w>"], "es\u2019</w>"], [["V", "</w>"], "V</w>"], [["ou", "s.</w>"], "ous.</w>"], [["mistres", "s,</w>"], "mistress,</w>"], [["fell", "ow,</w>"], "fellow,</w>"], [["p", "in"], "pin"], [["kin", "s"], "kins"], [["y", "._]</w>"], "y._]</w>"], [["natura", "l</w>"], "natural</w>"], [["be", "d.</w>"], "bed.</w>"], [["obe", "di"], "obedi"], [["beg", "in</w>"], "begin</w>"], [["lad", "y.</w>"], "lady.</w>"], [["th", "ing.</w>"], "thing.</w>"], [["bo", "tt"], "bott"], [["justi", "ce</w>"], "justice</w>"], [["other", "s.</w>"], "others.</w>"], [["bro", "ther\u2019s</w>"], "brother\u2019s</w>"], [["oa", "th</w>"], "oath</w>"], [["POSTHUM", "US.</w>"], "POSTHUMUS.</w>"], [["CLO", "T"], "CLOT"], [["CLOT", "EN.</w>"], "CLOTEN.</w>"], [["IACHIM", "O.</w>"], "IACHIMO.</w>"], [["Ed", "mun"], "Edmun"], [["Richar", "d,</w>"], "Richard,</w>"], [["A", "ST"], "AST"], [["MAR", "IA.</w>"], "MARIA.</w>"], [["DUCH", "ESS.</w>"], "DUCHESS.</w>"], [["mo", "ther\u2019s</w>"], "mother\u2019s</w>"], [["us", "ed</w>"], "used</w>"], [["ar", "t,</w>"], "art,</w>"], [["lea", "st</w>"], "least</w>"], [["se", "t,</w>"], "set,</w>"], [["for", "get</w>"], "forget</w>"], [["f", "ine</w>"], "fine</w>"], [["wit", "ness</w>"], "witness</w>"], [["du", "ll</w>"], "dull</w>"], [["stra", "ight</w>"], "straight</w>"], [["el", "s</w>"], "els</w>"], [["l", "es,</w>"], "les,</w>"], [["mi", "ra"], "mira"], [["G", "i"], "Gi"], [["Ma", "de</w>"], "Made</w>"], [["spor", "t</w>"], "sport</w>"], [["y", "ed</w>"], "yed</w>"], [["disp", "at"], "dispat"], [["es", "s;</w>"], "ess;</w>"], [["\u2019", "re</w>"], "\u2019re</w>"], [["wa", "s,</w>"], "was,</w>"], [["s", "choo"], "schoo"], [["re", "ti"], "reti"], [["in", "\u2019d</w>"], "in\u2019d</w>"], [["toge", "ther,</w>"], "together,</w>"], [["tro", "th,</w>"], "troth,</w>"], [["danger", "ous</w>"], "dangerous</w>"], [["y", "ond</w>"], "yond</w>"], [["per", "son</w>"], "person</w>"], [["V", "ol"], "Vol"], [["V", "IR"], "VIR"], [["QU", "ICK"], "QUICK"], [["HORTEN", "S"], "HORTENS"], [["me", "mor"], "memor"], [["tru", "ly</w>"], "truly</w>"], [["i", "de</w>"], "ide</w>"], [["mor", "ning</w>"], "morning</w>"], [["dee", "ds</w>"], "deeds</w>"], [["mel", "anchol"], "melanchol"], [["war", ",</w>"], "war,</w>"], [["af", "fair"], "affair"], [["Me", "thinks</w>"], "Methinks</w>"], [["sea", ",</w>"], "sea,</w>"], [["as", "sur"], "assur"], [["off", "ice</w>"], "office</w>"], [["gi", "f"], "gif"], [["Th", "ink</w>"], "Think</w>"], [["Tw", "o</w>"], "Two</w>"], [["V", "I.</w>"], "VI.</w>"], [["him", "!</w>"], "him!</w>"], [["li", "on</w>"], "lion</w>"], [["d", "ers</w>"], "ders</w>"], [["be", "g</w>"], "beg</w>"], [["Flouri", "sh.</w>"], "Flourish.</w>"], [["a", "whi"], "awhi"], [["no", "ise</w>"], "noise</w>"], [["vi", "ol"], "viol"], [["O", "!</w>"], "O!</w>"], [["fa", "ce.</w>"], "face.</w>"], [["clo", "se</w>"], "close</w>"], [["Pom", "p"], "Pomp"], [["batt", "le</w>"], "battle</w>"], [["C", "R"], "CR"], [["le", "an"], "lean"], [["JA", "QU"], "JAQU"], [["T", "O"], "TO"], [["TO", "UCH"], "TOUCH"], [["TOUCH", "ST"], "TOUCHST"], [["I", "E"], "IE"], [["Re", "-enter</w>"], "Re-enter</w>"], [["Nor", "thu"], "Northu"], [["Northu", "mber"], "Northumber"], [["Glouces", "ter,</w>"], "Gloucester,</w>"], [["B", "OL"], "BOL"], [["BOL", "ING"], "BOLING"], [["ACH", "IL"], "ACHIL"], [["T", "AL"], "TAL"], [["sp", "r"], "spr"], [["wear", "y</w>"], "weary</w>"], [["sor", "ry</w>"], "sorry</w>"], [["soul", "s</w>"], "souls</w>"], [["du", "e</w>"], "due</w>"], [["m", "it</w>"], "mit</w>"], [["prom", "ise</w>"], "promise</w>"], [["L", "est</w>"], "Lest</w>"], [["li", "ke,</w>"], "like,</w>"], [["wri", "t</w>"], "writ</w>"], [["m", "end</w>"], "mend</w>"], [["Where", "in</w>"], "Wherein</w>"], [["wh", "y,</w>"], "why,</w>"], [["e", "di"], "edi"], [["d", "an"], "dan"], [["beh", "ind</w>"], "behind</w>"], [["st", "ree"], "stree"], [["si", "on,</w>"], "sion,</w>"], [["n", "y</w>"], "ny</w>"], [["any", "thing</w>"], "anything</w>"], [["hur", "t</w>"], "hurt</w>"], [["self", ";</w>"], "self;</w>"], [["b", "at"], "bat"], [["to", ".</w>"], "to.</w>"], [["present", "ly</w>"], "presently</w>"], [["t", "es,</w>"], "tes,</w>"], [["matter", "?</w>"], "matter?</w>"], [["pea", "ce.</w>"], "peace.</w>"], [["ph", "es"], "phes"], [["d", "s"], "ds"], [["la", "di"], "ladi"], [["in", "?</w>"], "in?</w>"], [["An", "ge"], "Ange"], [["T", "IUS.</w>"], "TIUS.</w>"], [["th", "!</w>"], "th!</w>"], [["ROSAL", "INE.</w>"], "ROSALINE.</w>"], [["FRI", "AR</w>"], "FRIAR</w>"], [["QUICK", "LY.</w>"], "QUICKLY.</w>"], [["ACHIL", "LES.</w>"], "ACHILLES.</w>"], [["C", "OM"], "COM"], [["th", "s,</w>"], "ths,</w>"], [["shor", "t</w>"], "short</w>"], [["t", "ee"], "tee"], [["ex", "pres"], "expres"], [["fav", "our</w>"], "favour</w>"], [["bo", "d"], "bod"], [["pre", "cious</w>"], "precious</w>"], [["il", "ed</w>"], "iled</w>"], [["so", "lem"], "solem"], [["re", "vol"], "revol"], [["c", "tor</w>"], "ctor</w>"], [["b", "y.</w>"], "by.</w>"], [["husb", "and,</w>"], "husband,</w>"], [["wi", "ld</w>"], "wild</w>"], [["re", "ceive</w>"], "receive</w>"], [["so", "on"], "soon"], [["disc", "our"], "discour"], [["quick", "ly</w>"], "quickly</w>"], [["c", "oo"], "coo"], [["ma", "dam"], "madam"], [["nat", "ure,</w>"], "nature,</w>"], [["temp", "t</w>"], "tempt</w>"], [["mo", "des"], "modes"], [["fu", "l,</w>"], "ful,</w>"], [["res", "pect</w>"], "respect</w>"], [["k", "?</w>"], "k?</w>"], [["compan", "y.</w>"], "company.</w>"], [["c", "y.</w>"], "cy.</w>"], [["villa", "in</w>"], "villain</w>"], [["bl", "ee"], "blee"], [["A", "ja"], "Aja"], [["TOUCHST", "ONE.</w>"], "TOUCHSTONE.</w>"], [["bani", "sh"], "banish"], [["Ange", "lo"], "Angelo"], [["HOST", ".</w>"], "HOST.</w>"], [["H", "AST"], "HAST"], [["HAST", "ING"], "HASTING"], [["BOLING", "BROKE.</w>"], "BOLINGBROKE.</w>"], [["Ca", "pu"], "Capu"], [["BASS", "ANIO.</w>"], "BASSANIO.</w>"], [["B", "ian"], "Bian"], [["CAM", "ILL"], "CAMILL"], [["go", "ing</w>"], "going</w>"], [["loo", "ked</w>"], "looked</w>"], [["other", "s</w>"], "others</w>"], [["des", "i"], "desi"], [["l", "ess,</w>"], "less,</w>"], [["virtu", "ous</w>"], "virtuous</w>"], [["li", "k"], "lik"], [["f", "ect</w>"], "fect</w>"], [["fo", "ld</w>"], "fold</w>"], [["shar", "p</w>"], "sharp</w>"], [["t", "\u2019st</w>"], "t\u2019st</w>"], [["se", "th</w>"], "seth</w>"], [["ac", "tion</w>"], "action</w>"], [["lor", "ds</w>"], "lords</w>"], [["bet", "ra"], "betra"], [["a", "ge.</w>"], "age.</w>"], [["our", "ed</w>"], "oured</w>"], [["Hea", "ven</w>"], "Heaven</w>"], [["hi", "ther.</w>"], "hither.</w>"], [["c", "\u2019d</w>"], "c\u2019d</w>"], [["reven", "ge</w>"], "revenge</w>"], [["ch", ";</w>"], "ch;</w>"], [["[_", "Rea"], "[_Rea"], [["I", "ANA.</w>"], "IANA.</w>"], [["c", "es.</w>"], "ces.</w>"], [["mi", "d"], "mid"], [["ti", "tu"], "titu"], [["Alex", "and"], "Alexand"], [["De", "me"], "Deme"], [["Deme", "tri"], "Demetri"], [["li", "ver"], "liver"], [["SERV", "ING"], "SERVING"], [["COR", "N"], "CORN"], [["Eng", "land,</w>"], "England,</w>"], [["Har", "ry</w>"], "Harry</w>"], [["Nor", "fol"], "Norfol"], [["TAL", "BO"], "TALBO"], [["I", "T"], "IT"], [["REG", "AN.</w>"], "REGAN.</w>"], [["CAMILL", "O.</w>"], "CAMILLO.</w>"], [["TH", "</w>"], "TH</w>"], [["st", "ance</w>"], "stance</w>"], [["un", "less</w>"], "unless</w>"], [["l", "en"], "len"], [["noth", "ing.</w>"], "nothing.</w>"], [["ill", ",</w>"], "ill,</w>"], [["re", "mo"], "remo"], [["in", "v"], "inv"], [["at", "ten"], "atten"], [["th", "es"], "thes"], [["so", "ft</w>"], "soft</w>"], [["ta", "ken</w>"], "taken</w>"], [["su", "it"], "suit"], [["c", "ing</w>"], "cing</w>"], [["re", "be"], "rebe"], [["hon", "est"], "honest"], [["l", "y;</w>"], "ly;</w>"], [["per", "i"], "peri"], [["Attendan", "ts.</w>"], "Attendants.</w>"], [["res", "si"], "ressi"], [["toge", "ther.</w>"], "together.</w>"], [["pa", "s"], "pas"], [["Ex", "eun"], "Exeun"], [["fear", ".</w>"], "fear.</w>"], [["wa", "st</w>"], "wast</w>"], [["h", "e?</w>"], "he?</w>"], [["or", "der</w>"], "order</w>"], [["off", "er</w>"], "offer</w>"], [["Messeng", "er.</w>"], "Messenger.</w>"], [["pp", "\u2019d</w>"], "pp\u2019d</w>"], [["Cle", "op"], "Cleop"], [["Cleop", "at"], "Cleopat"], [["pri", "thee,</w>"], "prithee,</w>"], [["P", "TI"], "PTI"], [["gentle", "man,</w>"], "gentleman,</w>"], [["HASTING", "S.</w>"], "HASTINGS.</w>"], [["he", "ir</w>"], "heir</w>"], [["rememb", "ran"], "remembran"], [["heaven", "ly</w>"], "heavenly</w>"], [["con", "ver"], "conver"], [["your", "s,</w>"], "yours,</w>"], [["ra", "ge</w>"], "rage</w>"], [["knowle", "dge</w>"], "knowledge</w>"], [["e", "li"], "eli"], [["sovereig", "n</w>"], "sovereign</w>"], [["stea", "l</w>"], "steal</w>"], [["hea", "l"], "heal"], [["H", "ang"], "Hang"], [["li", "vi"], "livi"], [["for", "war"], "forwar"], [["th", "ed</w>"], "thed</w>"], [["dro", "p</w>"], "drop</w>"], [["hum", "our</w>"], "humour</w>"], [["k", "ings</w>"], "kings</w>"], [["er", "r"], "err"], [["ef", ",</w>"], "ef,</w>"], [["na", "me.</w>"], "name.</w>"], [["b", "orr"], "borr"], [["fe", "ed</w>"], "feed</w>"], [["des", "per"], "desper"], [["l", "s,</w>"], "ls,</w>"], [["fare", "well.</w>"], "farewell.</w>"], [["kna", "ve</w>"], "knave</w>"], [["P", "ard"], "Pard"], [["th", "\u2019"], "th\u2019"], [["enough", ".</w>"], "enough.</w>"], [["is", "\u2019d</w>"], "is\u2019d</w>"], [["Loo", "k,</w>"], "Look,</w>"], [["shi", "p,</w>"], "ship,</w>"], [["fi", "f"], "fif"], [["tion", "?</w>"], "tion?</w>"], [["ha", "ir</w>"], "hair</w>"], [["Fi", "e,</w>"], "Fie,</w>"], [["For", ",</w>"], "For,</w>"], [["sud", "den</w>"], "sudden</w>"], [["a", "bro"], "abro"], [["so", "f"], "sof"], [["Th", "er"], "Ther"], [["L", "</w>"], "L</w>"], [["ba", "w"], "baw"], [["E", "mili"], "Emili"], [["o", "._]</w>"], "o._]</w>"], [["AN", "D.</w>"], "AND.</w>"], [["TALBO", "T.</w>"], "TALBOT.</w>"], [["Mon", "ta"], "Monta"], [["B", "enedi"], "Benedi"], [["HORTENS", "IO.</w>"], "HORTENSIO.</w>"], [["FRI", "EN"], "FRIEN"], [["re", "\u2019s</w>"], "re\u2019s</w>"], [["call", "s</w>"], "calls</w>"], [["hear", ",</w>"], "hear,</w>"], [["am", "ong</w>"], "among</w>"], [["at", "e.</w>"], "ate.</w>"], [["counter", "fe"], "counterfe"], [["some", "time</w>"], "sometime</w>"], [["glor", "y</w>"], "glory</w>"], [["re", "ig"], "reig"], [["di", "vi"], "divi"], [["a", "ught</w>"], "aught</w>"], [["bi", "ds</w>"], "bids</w>"], [["l", "ess"], "less"], [["suff", "er</w>"], "suffer</w>"], [["ba", "ck,</w>"], "back,</w>"], [["s", "k</w>"], "sk</w>"], [["ing", "ly</w>"], "ingly</w>"], [["D", "ou"], "Dou"], [["childr", "en</w>"], "children</w>"], [["wor", "st</w>"], "worst</w>"], [["in", "ing</w>"], "ining</w>"], [["bit", "ter</w>"], "bitter</w>"], [["all", "y</w>"], "ally</w>"], [["Is", "\u2019t</w>"], "Is\u2019t</w>"], [["h", "ood</w>"], "hood</w>"], [["your", "s.</w>"], "yours.</w>"], [["Spea", "k,</w>"], "Speak,</w>"], [["s", "qu"], "squ"], [["mu", "ch.</w>"], "much.</w>"], [["ge", "!</w>"], "ge!</w>"], [["scar", "ce</w>"], "scarce</w>"], [["T", "omorr"], "Tomorr"], [["ce", "pt</w>"], "cept</w>"], [["tal", "e</w>"], "tale</w>"], [["ra", "g"], "rag"], [["Sha", "ll"], "Shall"], [["cir", "cu"], "circu"], [["G", "E"], "GE"], [["JA", "IL"], "JAIL"], [["S", "co"], "Sco"], [["SERVING", "MAN.</w>"], "SERVINGMAN.</w>"], [["FL", "U"], "FLU"], [["FLU", "ELL"], "FLUELL"], [["I", "EL.</w>"], "IEL.</w>"], [["GR", "ATI"], "GRATI"], [["BA", "PTI"], "BAPTI"], [["BAPTI", "ST"], "BAPTIST"], [["bri", "ght</w>"], "bright</w>"], [["ten", "t,</w>"], "tent,</w>"], [["v", "e?</w>"], "ve?</w>"], [["6", "</w>"], "6</w>"], [["b", "id"], "bid"], [["sp", "end</w>"], "spend</w>"], [["pres", "ence</w>"], "presence</w>"], [["per", "fec"], "perfec"], [["ll", "ed</w>"], "lled</w>"], [["subj", "ect</w>"], "subject</w>"], [["ad", "v"], "adv"], [["pu", "l"], "pul"], [["stru", "ck</w>"], "struck</w>"], [["ev", "er,</w>"], "ever,</w>"], [["j", "ec"], "jec"], [["bl", "ow</w>"], "blow</w>"], [["A", "m</w>"], "Am</w>"], [["Pala", "ce.</w>"], "Palace.</w>"], [["than", "k"], "thank"], [["Wel", "come,</w>"], "Welcome,</w>"], [["hea", "ds</w>"], "heads</w>"], [["in", "\u2019s</w>"], "in\u2019s</w>"], [["uncl", "e,</w>"], "uncle,</w>"], [["sp", "eech</w>"], "speech</w>"], [["wel", "come.</w>"], "welcome.</w>"], [["villa", "in,</w>"], "villain,</w>"], [["bear", "ing</w>"], "bearing</w>"], [["dam", "ned</w>"], "damned</w>"], [["[_", "Wi"], "[_Wi"], [["[_Wi", "thin"], "[_Within"], [["g", "un"], "gun"], [["MON", "T"], "MONT"], [["FLUELL", "EN.</w>"], "FLUELLEN.</w>"], [["IN", "C"], "INC"], [["An", "dr"], "Andr"], [["FO", "OL.</w>"], "FOOL.</w>"], [["i", "cl"], "icl"], [["BAPTIST", "A.</w>"], "BAPTISTA.</w>"], [["FRIEN", "D.</w>"], "FRIEND.</w>"], [["LAN", "CE.</w>"], "LANCE.</w>"], [["A", "UT"], "AUT"], [["AUT", "OL"], "AUTOL"], [["AUTOL", "Y"], "AUTOLY"], [["4", "</w>"], "4</w>"], [["in", "ess</w>"], "iness</w>"], [["8", "</w>"], "8</w>"], [["chil", "d,</w>"], "child,</w>"], [["0", "</w>"], "0</w>"], [["chi", "ef</w>"], "chief</w>"], [["ter", "n"], "tern"], [["keep", "s</w>"], "keeps</w>"], [["in", "ted</w>"], "inted</w>"], [["pi", "c"], "pic"], [["a", "st</w>"], "ast</w>"], [["ce", ":</w>"], "ce:</w>"], [["dis", "da"], "disda"], [["ligh", "t.</w>"], "light.</w>"], [["ha", "te"], "hate"], [["righ", "t,</w>"], "right,</w>"], [["wh", "ence</w>"], "whence</w>"], [["gu", "ard</w>"], "guard</w>"], [["sp", "eed</w>"], "speed</w>"], [["go", "d</w>"], "god</w>"], [["ur", "e.</w>"], "ure.</w>"], [["simp", "le</w>"], "simple</w>"], [["mi", "sta"], "mista"], [["v", "ar"], "var"], [["lear", "ned</w>"], "learned</w>"], [["re", ";</w>"], "re;</w>"], [["g", "\u2019d</w>"], "g\u2019d</w>"], [["bi", "li"], "bili"], [["mon", "str"], "monstr"], [["i", "d.</w>"], "id.</w>"], [["cha", "ll"], "chall"], [["ma", "ster.</w>"], "master.</w>"], [["ck", "-"], "ck-"], [["counsel", "</w>"], "counsel</w>"], [["on", "!</w>"], "on!</w>"], [["inno", "c"], "innoc"], [["O", "S"], "OS"], [["le", "!</w>"], "le!</w>"], [["I", "\u2019</w>"], "I\u2019</w>"], [["JAIL", "ER.</w>"], "JAILER.</w>"], [["M", "il"], "Mil"], [["CA", "D"], "CAD"], [["a", "ti"], "ati"], [["PO", "IN"], "POIN"], [["POIN", "S.</w>"], "POINS.</w>"], [["U", "ST"], "UST"], [["SAL", "IS"], "SALIS"], [["GRATI", "ANO.</w>"], "GRATIANO.</w>"], [["AUTOLY", "CUS.</w>"], "AUTOLYCUS.</w>"], [["N", "at"], "Nat"], [["fi", "g"], "fig"], [["es", "e"], "ese"], [["may", "st</w>"], "mayst</w>"], [["gr", "ows</w>"], "grows</w>"], [["lear", "n</w>"], "learn</w>"], [["ti", "t"], "tit"], [["wea", "lth</w>"], "wealth</w>"], [["gr", "own</w>"], "grown</w>"], [["than", "ks</w>"], "thanks</w>"], [["lea", "ve,</w>"], "leave,</w>"], [["lar", "ge</w>"], "large</w>"], [["qui", "ck</w>"], "quick</w>"], [["mea", "sure</w>"], "measure</w>"], [["dou", "ble</w>"], "double</w>"], [["Ri", "ch"], "Rich"], [["wretch", "ed</w>"], "wretched</w>"], [["v", "ed,</w>"], "ved,</w>"], [["ne", "g"], "neg"], [["pro", "cla"], "procla"], [["ment", "s,</w>"], "ments,</w>"], [["ces", "si"], "cessi"], [["m", "it"], "mit"], [["mann", "er</w>"], "manner</w>"], [["pi", "ti"], "piti"], [["lan", "gu"], "langu"], [["se", "ly</w>"], "sely</w>"], [["F", "lor"], "Flor"], [["lov", "e;</w>"], "love;</w>"], [["laugh", "</w>"], "laugh</w>"], [["lor", "d!</w>"], "lord!</w>"], [["r", "ow</w>"], "row</w>"], [["f", ".</w>"], "f.</w>"], [["\u2019", "d?</w>"], "\u2019d?</w>"], [["z", "en</w>"], "zen</w>"], [["man", "!</w>"], "man!</w>"], [["u", "m.</w>"], "um.</w>"], [["E", "gy"], "Egy"], [["B", "el"], "Bel"], [["g", "or"], "gor"], [["stre", "et</w>"], "street</w>"], [["A", "lar"], "Alar"], [["pala", "ce</w>"], "palace</w>"], [["A", "ri"], "Ari"], [["TH", "A"], "THA"], [["def", "end</w>"], "defend</w>"], [["COM", "INIUS.</w>"], "COMINIUS.</w>"], [["H", "OL"], "HOL"], [["PRO", "V"], "PROV"], [["ST", "EPH"], "STEPH"], [["DAU", "GH"], "DAUGH"], [["Lu", "centi"], "Lucenti"], [["is", "e.</w>"], "ise.</w>"], [["t", "om"], "tom"], [["f", "ran"], "fran"], [["gre", "en</w>"], "green</w>"], [["Sa", "ve</w>"], "Save</w>"], [["wh", "erefore</w>"], "wherefore</w>"], [["ama", "z"], "amaz"], [["pri", "de</w>"], "pride</w>"], [["o", "pp"], "opp"], [["u", "g"], "ug"], [["com", "men"], "commen"], [["dar", "k</w>"], "dark</w>"], [["bur", "n"], "burn"], [["ar", "e.</w>"], "are.</w>"], [["kn", "if"], "knif"], [["fir", "m</w>"], "firm</w>"], [["au", "thor"], "author"], [["d", "ur"], "dur"], [["ha", "b"], "hab"], [["min", "d.</w>"], "mind.</w>"], [["v", "e\u2019s</w>"], "ve\u2019s</w>"], [["S", "till</w>"], "Still</w>"], [["Fortun", "e</w>"], "Fortune</w>"], [["er", "-"], "er-"], [["be", "liev"], "believ"], [["ma", "y,</w>"], "may,</w>"], [["ca", "mp"], "camp"], [["ma", "t"], "mat"], [["\u2019T", "was</w>"], "\u2019Twas</w>"], [["h", "ow"], "how"], [["[_S", "ing"], "[_Sing"], [["I", "\u2019d</w>"], "I\u2019d</w>"], [["C", "ressi"], "Cressi"], [["ent", "rea"], "entrea"], [["Fa", "ir</w>"], "Fair</w>"], [["mou", "th</w>"], "mouth</w>"], [["you", ":</w>"], "you:</w>"], [["quarre", "l</w>"], "quarrel</w>"], [["drea", "dful</w>"], "dreadful</w>"], [["K", "now</w>"], "Know</w>"], [["enter", "tain"], "entertain"], [["pra", "y,</w>"], "pray,</w>"], [["son", "s,</w>"], "sons,</w>"], [["Wh", "o\u2019s</w>"], "Who\u2019s</w>"], [["prin", "ce,</w>"], "prince,</w>"], [["an", "cient</w>"], "ancient</w>"], [["si", "ster"], "sister"], [["C", "ha"], "Cha"], [["mis", "er"], "miser"], [["es", "ter"], "ester"], [["circu", "m"], "circum"], [["mi", "ll"], "mill"], [["Cast", "le.</w>"], "Castle.</w>"], [["PROV", "OST"], "PROVOST"], [["PROVOST", ".</w>"], "PROVOST.</w>"], [["DAUGH", "TER.</w>"], "DAUGHTER.</w>"], [["W", "ILL"], "WILL"], [["d", "\u2019st</w>"], "d\u2019st</w>"], [["lea", "ves</w>"], "leaves</w>"], [["though", "t,</w>"], "thought,</w>"], [["fi", "x"], "fix"], [["though", "ts,</w>"], "thoughts,</w>"], [["sh", "ing</w>"], "shing</w>"], [["for", "e"], "fore"], [["vi", "ew</w>"], "view</w>"], [["phy", "si"], "physi"], [["sil", "ver</w>"], "silver</w>"], [["a", "ir,</w>"], "air,</w>"], [["swif", "t</w>"], "swift</w>"], [["th", "ru"], "thru"], [["ca", "se</w>"], "case</w>"], [["To", "o</w>"], "Too</w>"], [["al", "ready</w>"], "already</w>"], [["sa", "u"], "sau"], [["coun", "ten"], "counten"], [["w", "ol"], "wol"], [["ea", "l</w>"], "eal</w>"], [["b", "ran"], "bran"], [["dr", "own"], "drown"], [["Hel", "en"], "Helen"], [["wis", "dom</w>"], "wisdom</w>"], [["y", "et"], "yet"], [["ong", "st</w>"], "ongst</w>"], [["con", "v"], "conv"], [["honour", ".</w>"], "honour.</w>"], [["ton", "ight.</w>"], "tonight.</w>"], [["master", "\u2019s</w>"], "master\u2019s</w>"], [["lord", "ship</w>"], "lordship</w>"], [["on", "der</w>"], "onder</w>"], [["wor", "ds.</w>"], "words.</w>"], [["N", "e"], "Ne"], [["there", "fore,</w>"], "therefore,</w>"], [["mar", "k"], "mark"], [["CHAR", "MI"], "CHARMI"], [["be", "ll"], "bell"], [["es", "sa"], "essa"], [["si", "on.</w>"], "sion.</w>"], [["u", "ri"], "uri"], [["cr", "own,</w>"], "crown,</w>"], [["l", "un"], "lun"], [["arm", "s.</w>"], "arms.</w>"], [["N", "IA.</w>"], "NIA.</w>"], [["W", "O"], "WO"], [["N", "ur"], "Nur"], [["Hen", "r"], "Henr"], [["M", "al"], "Mal"], [["Hen", "ry,</w>"], "Henry,</w>"], [["SALIS", "BURY.</w>"], "SALISBURY.</w>"], [["LA", "V"], "LAV"], [["Des", "demon"], "Desdemon"], [["Per", "icl"], "Pericl"], [["Ti", "mon"], "Timon"], [["MAR", "CUS.</w>"], "MARCUS.</w>"], [["Pala", "m"], "Palam"], [["in", "d,</w>"], "ind,</w>"], [["youn", "g"], "young"], [["p", "lan"], "plan"], [["er", "ce</w>"], "erce</w>"], [["Ha", "st</w>"], "Hast</w>"], [["p", "are</w>"], "pare</w>"], [["wh", "ether</w>"], "whether</w>"], [["g", "ar</w>"], "gar</w>"], [["form", "er</w>"], "former</w>"], [["be", "fore,</w>"], "before,</w>"], [["A", "d"], "Ad"], [["pow", "er,</w>"], "power,</w>"], [["E", "ither</w>"], "Either</w>"], [["b", "ig"], "big"], [["wan", "ton</w>"], "wanton</w>"], [["bo", "th,</w>"], "both,</w>"], [["fool", "s</w>"], "fools</w>"], [["her", "self</w>"], "herself</w>"], [["n", "one.</w>"], "none.</w>"], [["T", "ri"], "Tri"], [["qu", "en"], "quen"], [["A", ",</w>"], "A,</w>"], [["st", "ir</w>"], "stir</w>"], [["fi", "ed</w>"], "fied</w>"], [["ch", "\u2019d</w>"], "ch\u2019d</w>"], [["m", "ere</w>"], "mere</w>"], [["hom", "e.</w>"], "home.</w>"], [["fiel", "d.</w>"], "field.</w>"], [["in", "stan"], "instan"], [["trait", "or"], "traitor"], [["d", "ent</w>"], "dent</w>"], [["con", "su"], "consu"], [["u", "tter"], "utter"], [["le", "?</w>"], "le?</w>"], [["DI", "OM"], "DIOM"], [["DIOM", "ED"], "DIOMED"], [["CHARMI", "AN.</w>"], "CHARMIAN.</w>"], [["won", "der"], "wonder"], [["d", "s;</w>"], "ds;</w>"], [["f", "at</w>"], "fat</w>"], [["sig", "ni"], "signi"], [["ang", "ry</w>"], "angry</w>"], [["B", "ar"], "Bar"], [["gentle", "men,</w>"], "gentlemen,</w>"], [["P", "ol"], "Pol"], [["Hec", "tor</w>"], "Hector</w>"], [["cur", "sed</w>"], "cursed</w>"], [["LA", "ER"], "LAER"], [["O", "PH"], "OPH"], [["England", "\u2019s</w>"], "England\u2019s</w>"], [["OW", "ER.</w>"], "OWER.</w>"], [["Glouces", "ter</w>"], "Gloucester</w>"], [["KATH", "AR"], "KATHAR"], [["SE", "T.</w>"], "SET.</w>"], [["STEPH", "ANO.</w>"], "STEPHANO.</w>"], [["MAR", "INA.</w>"], "MARINA.</w>"], [["MER", "C"], "MERC"], [["BEN", "VOLIO.</w>"], "BENVOLIO.</w>"], [["Ty", "bal"], "Tybal"], [["I", "X"], "IX"], [["f", "ree"], "free"], [["priv", "ate</w>"], "private</w>"], [["w", "and"], "wand"], [["where", "in</w>"], "wherein</w>"], [["Whi", "lst</w>"], "Whilst</w>"], [["le", "d,</w>"], "led,</w>"], [["wo", "e</w>"], "woe</w>"], [["k", "er</w>"], "ker</w>"], [["law", "ful</w>"], "lawful</w>"], [["ci", "v"], "civ"], [["ci", "an</w>"], "cian</w>"], [["for", "th,</w>"], "forth,</w>"], [["hour", ",</w>"], "hour,</w>"], [["mis", "s</w>"], "miss</w>"], [["tow", "ards</w>"], "towards</w>"], [["bl", "ed</w>"], "bled</w>"], [["id", "le</w>"], "idle</w>"], [["jo", "y"], "joy"], [["a", "d</w>"], "ad</w>"], [["d", "ing,</w>"], "ding,</w>"], [["faul", "ts</w>"], "faults</w>"], [["con", "dem"], "condem"], [["guil", "ty</w>"], "guilty</w>"], [["f", "are</w>"], "fare</w>"], [["wo", "o</w>"], "woo</w>"], [["consci", "ence</w>"], "conscience</w>"], [["as", "l"], "asl"], [["soldi", "er</w>"], "soldier</w>"], [["K", "eep</w>"], "Keep</w>"], [["s", "-"], "s-"], [["our", "selves</w>"], "ourselves</w>"], [["E", "l"], "El"], [["sha", "ll,</w>"], "shall,</w>"], [["Qu", "i"], "Qui"], [["ar", "ti"], "arti"], [["countr", "y"], "country"], [["u", "m</w>"], "um</w>"], [["end", "ure</w>"], "endure</w>"], [["dev", "il"], "devil"], [["off", "ence</w>"], "offence</w>"], [["fi", "di"], "fidi"], [["Anton", "y,</w>"], "Antony,</w>"], [["new", "s?</w>"], "news?</w>"], [["Que", "en,</w>"], "Queen,</w>"], [["B", "id</w>"], "Bid</w>"], [["H", "i"], "Hi"], [["WILL", "I"], "WILLI"], [["daugh", "ter.</w>"], "daughter.</w>"], [["rom", "i"], "romi"], [["Coriol", "an"], "Coriolan"], [["VOL", "UM"], "VOLUM"], [["ER", "IUS.</w>"], "ERIUS.</w>"], [["LAER", "TES.</w>"], "LAERTES.</w>"], [["Th", "om"], "Thom"], [["Ka", "ther"], "Kather"], [["NOR", "F"], "NORF"], [["MERC", "UT"], "MERCUT"], [["MERCUT", "IO.</w>"], "MERCUTIO.</w>"], [["LUC", "ENTIO.</w>"], "LUCENTIO.</w>"], [["GR", "UM"], "GRUM"], [["GRUM", "IO.</w>"], "GRUMIO.</w>"], [["c", "ted</w>"], "cted</w>"], [["self", "-"], "self-"], [["qu", "ite</w>"], "quite</w>"], [["ear", "ing</w>"], "earing</w>"], [["me", "\u2019s</w>"], "me\u2019s</w>"], [["secre", "t</w>"], "secret</w>"], [["draw", "n</w>"], "drawn</w>"], [["nu", "mb"], "numb"], [["s", "ong"], "song"], [["cun", "ning</w>"], "cunning</w>"], [["t", "ear</w>"], "tear</w>"], [["ru", "de</w>"], "rude</w>"], [["en", ";</w>"], "en;</w>"], [["wea", "l"], "weal"], [["con", "tr"], "contr"], [["t", "ful</w>"], "tful</w>"], [["hum", "ble</w>"], "humble</w>"], [["spiri", "t,</w>"], "spirit,</w>"], [["matter", ",</w>"], "matter,</w>"], [["tun", "e</w>"], "tune</w>"], [["cat", "ch</w>"], "catch</w>"], [["ar", "ri"], "arri"], [["war", "like</w>"], "warlike</w>"], [["y", "et.</w>"], "yet.</w>"], [["w", "e,</w>"], "we,</w>"], [["cu", "ck"], "cuck"], [["s", "ear"], "sear"], [["t", "y;</w>"], "ty;</w>"], [["them", ";</w>"], "them;</w>"], [["noth", "ing,</w>"], "nothing,</w>"], [["arm", "s,</w>"], "arms,</w>"], [["mon", "e"], "mone"], [["fa", "in</w>"], "fain</w>"], [["w", "oul"], "woul"], [["B", "ra"], "Bra"], [["h", "e.</w>"], "he.</w>"], [["do", "g</w>"], "dog</w>"], [["te", "en</w>"], "teen</w>"], [["sh", "ri"], "shri"], [["ous", "e.</w>"], "ouse.</w>"], [["s", "es.</w>"], "ses.</w>"], [["Th", "ou"], "Thou"], [["ck", "?</w>"], "ck?</w>"], [["si", "de"], "side"], [["DIOMED", "ES.</w>"], "DIOMEDES.</w>"], [["awa", "y!</w>"], "away!</w>"], [["GU", "ID"], "GUID"], [["J", "UST"], "JUST"], [["Pi", "stol"], "Pistol"], [["KATHAR", "INE.</w>"], "KATHARINE.</w>"], [["cu", "s,</w>"], "cus,</w>"], [["LA", "W"], "LAW"], [["CAD", "E.</w>"], "CADE.</w>"], [["ET", "TA.</w>"], "ETTA.</w>"], [["H", "E"], "HE"], [["al", "one,</w>"], "alone,</w>"], [["oun", "ds</w>"], "ounds</w>"], [["new", "-"], "new-"], [["wi", "d"], "wid"], [["bur", "n</w>"], "burn</w>"], [["wrong", ",</w>"], "wrong,</w>"], [["qui", "et</w>"], "quiet</w>"], [["v", "ouch"], "vouch"], [["st", "rea"], "strea"], [["d", "ry</w>"], "dry</w>"], [["ta", "ins</w>"], "tains</w>"], [["le", "is"], "leis"], [["A", "wa"], "Awa"], [["in", "d.</w>"], "ind.</w>"], [["whi", "lst</w>"], "whilst</w>"], [["res", "t.</w>"], "rest.</w>"], [["y", "ear"], "year"], [["pr", "oo"], "proo"], [["fashi", "on</w>"], "fashion</w>"], [["wer", "e,</w>"], "were,</w>"], [["wor", "ship</w>"], "worship</w>"], [["a", "._]</w>"], "a._]</w>"], [["No", ".</w>"], "No.</w>"], [["no", ".</w>"], "no.</w>"], [["Bes", "ides,</w>"], "Besides,</w>"], [["lo", "ck</w>"], "lock</w>"], [["Sir", "rah,</w>"], "Sirrah,</w>"], [["caus", "e,</w>"], "cause,</w>"], [["sea", "l</w>"], "seal</w>"], [["t", "\u2019"], "t\u2019"], [["lov", "\u2019d</w>"], "lov\u2019d</w>"], [["vent", "ure</w>"], "venture</w>"], [["hou", "se"], "house"], [["Eng", "li"], "Engli"], [["on", "?</w>"], "on?</w>"], [["disp", "lea"], "displea"], [["al", "ong</w>"], "along</w>"], [["tr", "oo"], "troo"], [["Sh", "e\u2019s</w>"], "She\u2019s</w>"], [["enough", ",</w>"], "enough,</w>"], [["pro", "per</w>"], "proper</w>"], [["ar", "my</w>"], "army</w>"], [["ck", "s,</w>"], "cks,</w>"], [["lad", "y\u2019s</w>"], "lady\u2019s</w>"], [["?", "\u2014"], "?\u2014"], [["J", "ew"], "Jew"], [["sc", "en"], "scen"], [["St", "an"], "Stan"], [["B", "ro"], "Bro"], [["tw", "el"], "twel"], [["P", "ut</w>"], "Put</w>"], [["Wh", "er"], "Wher"], [["comm", "end</w>"], "commend</w>"], [["rea", "l"], "real"], [["vi", "sh</w>"], "vish</w>"], [["B", "AL"], "BAL"], [["D", "romi"], "Dromi"], [["C", "at"], "Cat"], [["J", "es"], "Jes"], [["P", "and"], "Pand"], [["Por", "ti"], "Porti"], [["O", "the"], "Othe"], [["Othe", "ll"], "Othell"], [["RO", "DER"], "RODER"], [["RODER", "IG"], "RODERIG"], [["vo", "li"], "voli"], [["Pe", "tru"], "Petru"], [["Petru", "chi"], "Petruchi"], [["La", "v"], "Lav"], [["PA", "UL"], "PAUL"], [["N", "I"], "NI"], [["worl", "d\u2019s</w>"], "world\u2019s</w>"], [["lov", "e?</w>"], "love?</w>"], [["h", "ence.</w>"], "hence.</w>"], [["an", "ti"], "anti"], [["shad", "ow</w>"], "shadow</w>"], [["b", "ene"], "bene"], [["po", "sed</w>"], "posed</w>"], [["grief", ",</w>"], "grief,</w>"], [["ta", "ste</w>"], "taste</w>"], [["sleep", ",</w>"], "sleep,</w>"], [["fi", "ll</w>"], "fill</w>"], [["a", "dieu"], "adieu"], [["cru", "el</w>"], "cruel</w>"], [["mu", "ch,</w>"], "much,</w>"], [["al", "ways</w>"], "always</w>"], [["of", ",</w>"], "of,</w>"], [["drea", "m</w>"], "dream</w>"], [["col", "our</w>"], "colour</w>"], [["tur", "e,</w>"], "ture,</w>"], [["marri", "age</w>"], "marriage</w>"], [["di", "sea"], "disea"], [["it", "ed</w>"], "ited</w>"], [["On", "ly</w>"], "Only</w>"], [["C", "up"], "Cup"], [["ing", "!</w>"], "ing!</w>"], [["ce", "ed</w>"], "ceed</w>"], [["dang", "er</w>"], "danger</w>"], [["self", "?</w>"], "self?</w>"], [["ne", "i"], "nei"], [["en", "ea"], "enea"], [["fool", ".</w>"], "fool.</w>"], [["Plea", "se</w>"], "Please</w>"], [["t", "s;</w>"], "ts;</w>"], [["con", "du"], "condu"], [["_", ".</w>"], "_.</w>"], [["hor", "se,</w>"], "horse,</w>"], [["di", "d,</w>"], "did,</w>"], [["S", "A"], "SA"], [["c", "ta"], "cta"], [["Sa", "y,</w>"], "Say,</w>"], [["Brutu", "s,</w>"], "Brutus,</w>"], [["si", "ster,</w>"], "sister,</w>"], [["WAT", "CH.</w>"], "WATCH.</w>"], [["ci", "ti"], "citi"], [["mur", "der</w>"], "murder</w>"], [["our", "s.</w>"], "ours.</w>"], [["BEL", "AR"], "BELAR"], [["P", "IS"], "PIS"], [["GUID", "ERIUS.</w>"], "GUIDERIUS.</w>"], [["JUST", "ICE.</w>"], "JUSTICE.</w>"], [["H", "umph"], "Humph"], [["Humph", "re"], "Humphre"], [["Rich", "mon"], "Richmon"], [["NORF", "OLK.</w>"], "NORFOLK.</w>"], [["BER", "T.</w>"], "BERT.</w>"], [["RODERIG", "O.</w>"], "RODERIGO.</w>"], [["GR", "EM"], "GREM"], [["Lav", "ini"], "Lavini"], [["PAUL", "INA.</w>"], "PAULINA.</w>"], [["ro", "se</w>"], "rose</w>"], [["de", "ter"], "deter"], [["con", "ce"], "conce"], [["bl", "ind</w>"], "blind</w>"], [["trou", "ble</w>"], "trouble</w>"], [["s", "mo"], "smo"], [["mo", "on</w>"], "moon</w>"], [["sun", ",</w>"], "sun,</w>"], [["wi", "t,</w>"], "wit,</w>"], [["y", "e,</w>"], "ye,</w>"], [["li", "e,</w>"], "lie,</w>"], [["kn", "ow.</w>"], "know.</w>"], [["op", "e</w>"], "ope</w>"], [["stor", "y</w>"], "story</w>"], [["vi", "le"], "vile"], [["thir", "d</w>"], "third</w>"], [["ea", "sy</w>"], "easy</w>"], [["fir", "st,</w>"], "first,</w>"], [["he", "ll</w>"], "hell</w>"], [["twi", "ce</w>"], "twice</w>"], [["Duk", "e\u2019s</w>"], "Duke\u2019s</w>"], [["mar", "ry,</w>"], "marry,</w>"], [["j", "est</w>"], "jest</w>"], [["jud", "g"], "judg"], [["Wha", "t!</w>"], "What!</w>"], [["bo", "th.</w>"], "both.</w>"], [["us", ":</w>"], "us:</w>"], [["hel", "p"], "help"], [["per", "for"], "perfor"], [["\u2019e", "m.</w>"], "\u2019em.</w>"], [["er", "!</w>"], "er!</w>"], [["no", "t"], "not"], [["cour", "t,</w>"], "court,</w>"], [["com", "es.</w>"], "comes.</w>"], [["se", "i"], "sei"], [["w", "on</w>"], "won</w>"], [["pe", "ti"], "peti"], [["mu", "l"], "mul"], [["woman", ".</w>"], "woman.</w>"], [["r", "ound</w>"], "round</w>"], [["cro", "ss</w>"], "cross</w>"], [["tt", "ed</w>"], "tted</w>"], [["val", "u"], "valu"], [["Pala", "ce</w>"], "Palace</w>"], [["t", "own"], "town"], [["PIS", "ANIO.</w>"], "PISANIO.</w>"], [["BELAR", "IUS.</w>"], "BELARIUS.</w>"], [["OPH", "ELIA.</w>"], "OPHELIA.</w>"], [["OM", ".</w>"], "OM.</w>"], [["BA", "W"], "BAW"], [["AND", "ER.</w>"], "ANDER.</w>"], [["A", "AR"], "AAR"], [["SILV", "IA.</w>"], "SILVIA.</w>"], [["Ar", "cit"], "Arcit"], [["POL", "IX"], "POLIX"], [["POLIX", "EN"], "POLIXEN"], [["ter", "ed</w>"], "tered</w>"], [["us", "e,</w>"], "use,</w>"], [["sha", "pe</w>"], "shape</w>"], [["for", "got</w>"], "forgot</w>"], [["ima", "gin"], "imagin"], [["l", "eng"], "leng"], [["p", "ly</w>"], "ply</w>"], [["n", "ear"], "near"], [["ex", "cuse</w>"], "excuse</w>"], [["th", "us,</w>"], "thus,</w>"], [["E", "ach</w>"], "Each</w>"], [["st", "in"], "stin"], [["long", ".</w>"], "long.</w>"], [["matter", ".</w>"], "matter.</w>"], [["l", "ing"], "ling"], [["S", "at"], "Sat"], [["goo", "d"], "good"], [["fea", "st</w>"], "feast</w>"], [["ev", "en"], "even"], [["er", "s;</w>"], "ers;</w>"], [["ha", "ve.</w>"], "have.</w>"], [["it", "!</w>"], "it!</w>"], [["d", "s._]</w>"], "ds._]</w>"], [["ti", "d"], "tid"], [["fu", "l.</w>"], "ful.</w>"], [["ex", "pec"], "expec"], [["V", "ery</w>"], "Very</w>"], [["ma", "id,</w>"], "maid,</w>"], [["v", "es"], "ves"], [["In", "deed,</w>"], "Indeed,</w>"], [["embra", "ce</w>"], "embrace</w>"], [["dis", "gu"], "disgu"], [["on", "ce,</w>"], "once,</w>"], [["swor", "e</w>"], "swore</w>"], [["ow", "e</w>"], "owe</w>"], [["H", "ouse.</w>"], "House.</w>"], [["st", "ir"], "stir"], [["sm", "oo"], "smoo"], [["hand", "s.</w>"], "hands.</w>"], [["ear", "n"], "earn"], [["da", "m</w>"], "dam</w>"], [["do", "or</w>"], "door</w>"], [["bani", "shed</w>"], "banished</w>"], [["JAQU", "ES.</w>"], "JAQUES.</w>"], [["t", "own</w>"], "town</w>"], [["rever", "end</w>"], "reverend</w>"], [["wea", "p"], "weap"], [["VOLUM", "NIA.</w>"], "VOLUMNIA.</w>"], [["bo", "y.</w>"], "boy.</w>"], [["T", "ran"], "Tran"], [["Cast", "le</w>"], "Castle</w>"], [["CH", "IE"], "CHIE"], [["CHIE", "F</w>"], "CHIEF</w>"], [["Edwar", "d,</w>"], "Edward,</w>"], [["S", "OM"], "SOM"], [["AL", "BAN"], "ALBAN"], [["W", "ALL.</w>"], "WALL.</w>"], [["BAW", "D.</w>"], "BAWD.</w>"], [["GREM", "IO.</w>"], "GREMIO.</w>"], [["AAR", "ON.</w>"], "AARON.</w>"], [["HE", "CTOR.</w>"], "HECTOR.</w>"], [["POLIXEN", "ES.</w>"], "POLIXENES.</w>"], [["tu", "res</w>"], "tures</w>"], [["f", "ro"], "fro"], [["thin", "e,</w>"], "thine,</w>"], [["lex", "i"], "lexi"], [["li", "mb"], "limb"], [["e", "ve</w>"], "eve</w>"], [["s", "ing,</w>"], "sing,</w>"], [["pre", "va"], "preva"], [["o", "ther,</w>"], "other,</w>"], [["in", "es</w>"], "ines</w>"], [["par", "t.</w>"], "part.</w>"], [["Hang", "</w>"], "Hang</w>"], [["sel", "ves.</w>"], "selves.</w>"], [["sla", "ve,</w>"], "slave,</w>"], [["advanta", "ge</w>"], "advantage</w>"], [["sp", "ect</w>"], "spect</w>"], [["\u2019t", "wixt</w>"], "\u2019twixt</w>"], [["res", "s</w>"], "ress</w>"], [["ri", "es</w>"], "ries</w>"], [["v", "ow</w>"], "vow</w>"], [["ven", "ge"], "venge"], [["le", "\u2019s</w>"], "le\u2019s</w>"], [["pro", "of</w>"], "proof</w>"], [["li", "c"], "lic"], [["ca", "u"], "cau"], [["Y", "et,</w>"], "Yet,</w>"], [["lad", "y"], "lady"], [["wi", "cked</w>"], "wicked</w>"], [["do", "?</w>"], "do?</w>"], [["na", "y,</w>"], "nay,</w>"], [["indee", "d.</w>"], "indeed.</w>"], [["trait", "or</w>"], "traitor</w>"], [["di", "ous</w>"], "dious</w>"], [["le", "g"], "leg"], [["bro", "ken</w>"], "broken</w>"], [["wh", "o,</w>"], "who,</w>"], [["per", "son"], "person"], [["com", "mis"], "commis"], [["honour", "s</w>"], "honours</w>"], [["stand", "ing</w>"], "standing</w>"], [["dea", "l</w>"], "deal</w>"], [["al", "ong"], "along"], [["?", "\u201d</w>"], "?\u201d</w>"], [["her", "ea"], "herea"], [["da", "gg"], "dagg"], [["can", ",</w>"], "can,</w>"], [["r", "oun"], "roun"], [["D", "OL"], "DOL"], [["O", "cta"], "Octa"], [["Octa", "vi"], "Octavi"], [["h", "o,</w>"], "ho,</w>"], [["M", "en"], "Men"], [["D", "en"], "Den"], [["ON", "G"], "ONG"], [["Pro", "vo"], "Provo"], [["se", "ven</w>"], "seven</w>"], [["sig", "n</w>"], "sign</w>"], [["law", ",</w>"], "law,</w>"], [["B", "ap"], "Bap"], [["Bap", "ti"], "Bapti"], [["Boling", "bro"], "Bolingbro"], [["CLIFF", "ORD.</w>"], "CLIFFORD.</w>"], [["DU", "MA"], "DUMA"], [["s", "ani"], "sani"], [["LAW", "R"], "LAWR"], [["ten", "si"], "tensi"], [["A", "JA"], "AJA"], [["H", "ere"], "Here"], [["des", "pit"], "despit"], [["persu", "a"], "persua"], [["beg", "ins</w>"], "begins</w>"], [["j", "our"], "jour"], [["mar", "ch</w>"], "march</w>"], [["ad", "ver"], "adver"], [["dear", "est</w>"], "dearest</w>"], [["bla", "me</w>"], "blame</w>"], [["know", "\u2019st</w>"], "know\u2019st</w>"], [["cl", "ear</w>"], "clear</w>"], [["s", "li"], "sli"], [["e", "ti"], "eti"], [["ri", "ch"], "rich"], [["gat", "es</w>"], "gates</w>"], [["fl", "ed</w>"], "fled</w>"], [["f", "il"], "fil"], [["le", "an</w>"], "lean</w>"], [["this", ":</w>"], "this:</w>"], [["equ", "al</w>"], "equal</w>"], [["fortun", "e,</w>"], "fortune,</w>"], [["sc", "ri"], "scri"], [["pur", "cha"], "purcha"], [["d", "ing.</w>"], "ding.</w>"], [["ck", "le</w>"], "ckle</w>"], [["sti", "ll.</w>"], "still.</w>"], [["pres", "er"], "preser"], [["C", "l"], "Cl"], [["pa", "ssa"], "passa"], [["possi", "ble</w>"], "possible</w>"], [["Fir", "st</w>"], "First</w>"], [["cha", "st"], "chast"], [["f", "our"], "four"], [["new", "s,</w>"], "news,</w>"], [["dru", "m</w>"], "drum</w>"], [["sud", "den"], "sudden"], [["vo", "i"], "voi"], [["tongu", "e.</w>"], "tongue.</w>"], [["lab", "our</w>"], "labour</w>"], [["z", "z"], "zz"], [["peop", "le,</w>"], "people,</w>"], [["Fir", "st,</w>"], "First,</w>"], [["occa", "sion</w>"], "occasion</w>"], [["ID", "IUS.</w>"], "IDIUS.</w>"], [["now", "!</w>"], "now!</w>"], [["a", "y,</w>"], "ay,</w>"], [["soo", "th,</w>"], "sooth,</w>"], [["du", "cat"], "ducat"], [["ca", "st"], "cast"], [["H", "U"], "HU"], [["D", "IN"], "DIN"], [["CORN", "WALL.</w>"], "CORNWALL.</w>"], [["ALBAN", "Y.</w>"], "ALBANY.</w>"], [["HOL", "O"], "HOLO"], [["HOLO", "FER"], "HOLOFER"], [["HOLOFER", "N"], "HOLOFERN"], [["DUMA", "INE.</w>"], "DUMAINE.</w>"], [["Bas", "sani"], "Bassani"], [["Cassi", "o</w>"], "Cassio</w>"], [["LAWR", "ENCE.</w>"], "LAWRENCE.</w>"], [["Hor", "tensi"], "Hortensi"], [["AG", "AM"], "AGAM"], [["AGAM", "EM"], "AGAMEM"], [["AJA", "X.</w>"], "AJAX.</w>"], [["1", "</w>"], "1</w>"], [["ing", ":</w>"], "ing:</w>"], [["lov", "ely</w>"], "lovely</w>"], [["sing", "le</w>"], "single</w>"], [["sa", "cr"], "sacr"], [["hea", "t</w>"], "heat</w>"], [["e", "tern"], "etern"], [["con", "stant</w>"], "constant</w>"], [["pain", "ted</w>"], "painted</w>"], [["comp", "lexi"], "complexi"], [["j", "ect</w>"], "ject</w>"], [["con", "sent</w>"], "consent</w>"], [["lo", "s"], "los"], [["a", "bu"], "abu"], [["where", "of</w>"], "whereof</w>"], [["p", "et"], "pet"], [["do", "ing</w>"], "doing</w>"], [["in", "fec"], "infec"], [["ma", "tch"], "match"], [["fl", "y,</w>"], "fly,</w>"], [["f", "el"], "fel"], [["wa", "it</w>"], "wait</w>"], [["har", "m"], "harm"], [["ri", "d</w>"], "rid</w>"], [["C", "hi"], "Chi"], [["A", "way</w>"], "Away</w>"], [["val", "our</w>"], "valour</w>"], [["Ma", "y"], "May"], [["You", "\u2019ll</w>"], "You\u2019ll</w>"], [["mer", "cy,</w>"], "mercy,</w>"], [["wa", "y"], "way"], [["ha", "z"], "haz"], [["f", "its</w>"], "fits</w>"], [["off", ".</w>"], "off.</w>"], [["ev", "er.</w>"], "ever.</w>"], [["ro", "ar"], "roar"], [["na", "me?</w>"], "name?</w>"], [["gol", "d,</w>"], "gold,</w>"], [["will", ";</w>"], "will;</w>"], [["within", "._]</w>"], "within._]</w>"], [["with", "al.</w>"], "withal.</w>"], [["T", "A"], "TA"], [["woun", "ds</w>"], "wounds</w>"], [["Har", "k,</w>"], "Hark,</w>"], [["!", "\u2014</w>"], "!\u2014</w>"], [["trump", "et</w>"], "trumpet</w>"], [["sla", "in</w>"], "slain</w>"], [["i", "an</w>"], "ian</w>"], [["be", "hol"], "behol"], [["vi", "sit</w>"], "visit</w>"], [["r", "e,</w>"], "re,</w>"], [["t", "ly,</w>"], "tly,</w>"], [["Au", "fidi"], "Aufidi"], [["AL", "D.</w>"], "ALD.</w>"], [["G", "on"], "Gon"], [["Henr", "y\u2019s</w>"], "Henry\u2019s</w>"], [["ST", "ER.</w>"], "STER.</w>"], [["C", "E"], "CE"], [["HOLOFERN", "ES.</w>"], "HOLOFERNES.</w>"], [["S", "LEND"], "SLEND"], [["SLEND", "ER.</w>"], "SLENDER.</w>"], [["Th", "ese"], "These"], [["Ly", "sand"], "Lysand"], [["con", "tra"], "contra"], [["li", "es,</w>"], "lies,</w>"], [["f", "ond</w>"], "fond</w>"], [["sacr", "ed</w>"], "sacred</w>"], [["S", "tri"], "Stri"], [["p", "en</w>"], "pen</w>"], [["out", "ward</w>"], "outward</w>"], [["es", "sion</w>"], "ession</w>"], [["f", "ight,</w>"], "fight,</w>"], [["b", "ook</w>"], "book</w>"], [["se", "en,</w>"], "seen,</w>"], [["civ", "il</w>"], "civil</w>"], [["for", "give</w>"], "forgive</w>"], [["mo", "tion</w>"], "motion</w>"], [["st", "!</w>"], "st!</w>"], [["caus", "e.</w>"], "cause.</w>"], [["mon", "u"], "monu"], [["wel", "come,</w>"], "welcome,</w>"], [["fl", "ouri"], "flouri"], [["jo", "in</w>"], "join</w>"], [["w", "n</w>"], "wn</w>"], [["s", "ant</w>"], "sant</w>"], [["pray", "ers</w>"], "prayers</w>"], [["le", "y</w>"], "ley</w>"], [["M", "ight</w>"], "Might</w>"], [["pois", "on</w>"], "poison</w>"], [["fall", "s</w>"], "falls</w>"], [["bur", "y</w>"], "bury</w>"], [["dispo", "si"], "disposi"], [["fur", "ni"], "furni"], [["gu", "e,</w>"], "gue,</w>"], [["sa", "il"], "sail"], [["sovereig", "n,</w>"], "sovereign,</w>"], [["them", "?</w>"], "them?</w>"], [["en", "ti"], "enti"], [["en", "coun"], "encoun"], [["hear", "ing</w>"], "hearing</w>"], [["g", "n"], "gn"], [["Be", "lieve</w>"], "Believe</w>"], [["soldi", "ers</w>"], "soldiers</w>"], [["kill", "\u2019d</w>"], "kill\u2019d</w>"], [["servi", "ce.</w>"], "service.</w>"], [["humbl", "y</w>"], "humbly</w>"], [["H", "as</w>"], "Has</w>"], [["pi", "ec"], "piec"], [["You", ",</w>"], "You,</w>"], [["E", "mp"], "Emp"], [["O", "u"], "Ou"], [["S", "et</w>"], "Set</w>"], [["Ser", "v"], "Serv"], [["Wi", "lli"], "Willi"], [["F", "ear</w>"], "Fear</w>"], [["P", "at"], "Pat"], [["re", "gar"], "regar"], [["gran", "d"], "grand"], [["s", "thu"], "sthu"], [["High", "ness</w>"], "Highness</w>"], [["Ma", "jesty</w>"], "Majesty</w>"], [["West", "mor"], "Westmor"], [["BER", "RY.</w>"], "BERRY.</w>"], [["I", "sa"], "Isa"], [["Buckingha", "m,</w>"], "Buckingham,</w>"], [["D", "OG"], "DOG"], [["AGAMEM", "NON.</w>"], "AGAMEMNON.</w>"], [["Ca", "mill"], "Camill"], [["Con", "t"], "Cont"], [["T", "AM"], "TAM"], [["rin", "k"], "rink"], [["kin", "d,</w>"], "kind,</w>"], [["prin", "ces</w>"], "princes</w>"], [["H", "ol"], "Hol"], [["fl", "u"], "flu"], [["to", "p</w>"], "top</w>"], [["en", "i"], "eni"], [["e", "m"], "em"], [["ba", "ssa"], "bassa"], [["Ma", "kes</w>"], "Makes</w>"], [["pa", "id</w>"], "paid</w>"], [["befor", "e.</w>"], "before.</w>"], [["sta", "in</w>"], "stain</w>"], [["th", "ence</w>"], "thence</w>"], [["thi", "ev"], "thiev"], [["pro", "vo"], "provo"], [["long", ",</w>"], "long,</w>"], [["for", "go"], "forgo"], [["s", "y"], "sy"], [["gro", "ss</w>"], "gross</w>"], [["est", "ee"], "estee"], [["br", "ings</w>"], "brings</w>"], [["gra", "ce.</w>"], "grace.</w>"], [["Th", "ree</w>"], "Three</w>"], [["for", "fe"], "forfe"], [["ch", "ea"], "chea"], [["w", "ound</w>"], "wound</w>"], [["A", "m"], "Am"], [["ma", "d,</w>"], "mad,</w>"], [["pow", "ers</w>"], "powers</w>"], [["desper", "ate</w>"], "desperate</w>"], [["Di", "an"], "Dian"], [["fir", "st.</w>"], "first.</w>"], [["kn", "ight</w>"], "knight</w>"], [["bro", "ther.</w>"], "brother.</w>"], [["\u201d", ".</w>"], "\u201d.</w>"], [["answ", "er.</w>"], "answer.</w>"], [["ba", "ck.</w>"], "back.</w>"], [["emp", "loy"], "employ"], [["ent", ";</w>"], "ent;</w>"], [["wha", "t,</w>"], "what,</w>"], [["t", "ing.</w>"], "ting.</w>"], [["et", "s,</w>"], "ets,</w>"], [["tri", "bu"], "tribu"], [["ow", "\u2019d</w>"], "ow\u2019d</w>"], [["d", "\u2019"], "d\u2019"], [["Wh", "erefore</w>"], "Wherefore</w>"], [["ri", "a.</w>"], "ria.</w>"], [["Egy", "p"], "Egyp"], [["a", "s,</w>"], "as,</w>"], [["do", "or"], "door"], [["di", "d.</w>"], "did.</w>"], [["righ", "t.</w>"], "right.</w>"], [["ch", "es"], "ches"], [["o", "la"], "ola"], [["Du", "ke,</w>"], "Duke,</w>"], [["kill", "ed</w>"], "killed</w>"], [["mu", "s</w>"], "mus</w>"], [["Tro", "j"], "Troj"], [["Bur", "gun"], "Burgun"], [["AN", "C"], "ANC"], [["UR", "N"], "URN"], [["HU", "BERT.</w>"], "HUBERT.</w>"], [["GON", "ER"], "GONER"], [["GONER", "IL"], "GONERIL"], [["Bea", "tri"], "Beatri"], [["DOG", "BERRY.</w>"], "DOGBERRY.</w>"], [["GON", "Z"], "GONZ"], [["GONZ", "AL"], "GONZAL"], [["F", "AB"], "FAB"], [["vi", "ew"], "view"], [["summ", "er</w>"], "summer</w>"], [["your", "self,</w>"], "yourself,</w>"], [["c", "ou"], "cou"], [["se", "e.</w>"], "see.</w>"], [["n", "s,</w>"], "ns,</w>"], [["t", "wa"], "twa"], [["war", "ds</w>"], "wards</w>"], [["extre", "m"], "extrem"], [["ta", "ught</w>"], "taught</w>"], [["f", "ears</w>"], "fears</w>"], [["a", "li"], "ali"], [["gh", "o"], "gho"], [["brea", "th,</w>"], "breath,</w>"], [["pati", "ent</w>"], "patient</w>"], [["sel", "</w>"], "sel</w>"], [["as", "sure</w>"], "assure</w>"], [["ta", "k"], "tak"], [["V", "II.</w>"], "VII.</w>"], [["S", "te"], "Ste"], [["ow", ";</w>"], "ow;</w>"], [["sp", "are</w>"], "spare</w>"], [["T", "ra"], "Tra"], [["ck", ";</w>"], "ck;</w>"], [["ey", "e.</w>"], "eye.</w>"], [["tion", "!</w>"], "tion!</w>"], [["mor", "ous</w>"], "morous</w>"], [["we", "d"], "wed"], [["qu", "it</w>"], "quit</w>"], [["disc", "re"], "discre"], [["st", "al"], "stal"], [["ig", "n</w>"], "ign</w>"], [["ness", "\u2019</w>"], "ness\u2019</w>"], [["drea", "m"], "dream"], [["On", "ce</w>"], "Once</w>"], [["tre", "mbl"], "trembl"], [["Ca", "pit"], "Capit"], [["p", "ru"], "pru"], [["sa", "fe"], "safe"], [["Lu", "cre"], "Lucre"], [["MAR", "TIUS.</w>"], "MARTIUS.</w>"], [["Tit", "us</w>"], "Titus</w>"], [["Th", "is"], "This"], [["K", "ate,</w>"], "Kate,</w>"], [["Ar", "th"], "Arth"], [["G", "E.</w>"], "GE.</w>"], [["SOM", "ER"], "SOMER"], [["S", "ON.</w>"], "SON.</w>"], [["GONERIL", ".</w>"], "GONERIL.</w>"], [["W", "IT"], "WIT"], [["WIT", "CH.</w>"], "WITCH.</w>"], [["Bian", "ca"], "Bianca"], [["CAL", "I"], "CALI"], [["M", "IR"], "MIR"], [["MIR", "AND"], "MIRAND"], [["GONZAL", "O.</w>"], "GONZALO.</w>"], [["O", "livi"], "Olivi"], [["FAB", "IAN.</w>"], "FABIAN.</w>"], [["ga", "z"], "gaz"], [["Bea", "u"], "Beau"], [["wall", "s</w>"], "walls</w>"], [["gg", "ed</w>"], "gged</w>"], [["bur", "ning</w>"], "burning</w>"], [["beau", "ty,</w>"], "beauty,</w>"], [["bar", "r"], "barr"], [["star", "s</w>"], "stars</w>"], [["ne", "d,</w>"], "ned,</w>"], [["cont", "ro"], "contro"], [["P", "res"], "Pres"], [["ere", "mon"], "eremon"], [["li", "gi"], "ligi"], [["ba", "s"], "bas"], [["tru", "th.</w>"], "truth.</w>"], [["app", "ear"], "appear"], [["hear", "t\u2019s</w>"], "heart\u2019s</w>"], [["spec", "i"], "speci"], [["sovereig", "n"], "sovereign"], [["me", "ll</w>"], "mell</w>"], [["fe", "w</w>"], "few</w>"], [["chee", "ks</w>"], "cheeks</w>"], [["ma", "king</w>"], "making</w>"], [["fr", "own"], "frown"], [["swee", "t,</w>"], "sweet,</w>"], [["ster", "n</w>"], "stern</w>"], [["re", "ck"], "reck"], [["soon", "er</w>"], "sooner</w>"], [["deser", "ve</w>"], "deserve</w>"], [["ri", "se</w>"], "rise</w>"], [["\u201d", ",</w>"], "\u201d,</w>"], [["amb", "i"], "ambi"], [["cour", "t.</w>"], "court.</w>"], [["el", "y.</w>"], "ely.</w>"], [["app", "re"], "appre"], [["de", "man"], "deman"], [["men", ";</w>"], "men;</w>"], [["tion", "s.</w>"], "tions.</w>"], [["lea", "ve.</w>"], "leave.</w>"], [["ta", "il"], "tail"], [["ent", "ly</w>"], "ently</w>"], [["at", ".</w>"], "at.</w>"], [["si", "x"], "six"], [["Christi", "an</w>"], "Christian</w>"], [["Ala", "ck,</w>"], "Alack,</w>"], [["a", "?</w>"], "a?</w>"], [["your", "self.</w>"], "yourself.</w>"], [["Capit", "ol"], "Capitol"], [["P", "ho"], "Pho"], [["om", "in"], "omin"], [["Ha", "!</w>"], "Ha!</w>"], [["on", "oun"], "onoun"], [["smil", "e</w>"], "smile</w>"], [["stra", "ight.</w>"], "straight.</w>"], [["Tar", "qu"], "Tarqu"], [["y", "o"], "yo"], [["Po", "sthu"], "Posthu"], [["P", "is"], "Pis"], [["ROS", "EN"], "ROSEN"], [["ROSEN", "CR"], "ROSENCR"], [["ROSENCR", "ANT"], "ROSENCRANT"], [["ROSENCRANT", "Z"], "ROSENCRANTZ"], [["W", "EST"], "WEST"], [["P", "lan"], "Plan"], [["CL", "AR"], "CLAR"], [["Edwar", "d\u2019s</w>"], "Edward\u2019s</w>"], [["Par", "is</w>"], "Paris</w>"], [["An", "ne</w>"], "Anne</w>"], [["KATHER", "INE.</w>"], "KATHERINE.</w>"], [["D", "on</w>"], "Don</w>"], [["ROS", "S.</w>"], "ROSS.</w>"], [["DO", "CTOR.</w>"], "DOCTOR.</w>"], [["Athen", "s</w>"], "Athens</w>"], [["LYS", "ANDER.</w>"], "LYSANDER.</w>"], [["P", "yra"], "Pyra"], [["PAR", "IS.</w>"], "PARIS.</w>"], [["MIRAND", "A.</w>"], "MIRANDA.</w>"], [["CALI", "B"], "CALIB"], [["CALIB", "AN.</w>"], "CALIBAN.</w>"], [["S", "AT"], "SAT"], [["SAT", "URN"], "SATURN"], [["SATURN", "IN"], "SATURNIN"], [["TAM", "OR"], "TAMOR"], [["D", "EN"], "DEN"], [["au", "di"], "audi"], [["th", "re"], "thre"], [["liv", "ed</w>"], "lived</w>"], [["t", "ing,</w>"], "ting,</w>"], [["a", "ir"], "air"], [["re", "d.</w>"], "red.</w>"], [["u", "ll</w>"], "ull</w>"], [["t", "res"], "tres"], [["vi", "ous</w>"], "vious</w>"], [["foll", "ows</w>"], "follows</w>"], [["for", "ced</w>"], "forced</w>"], [["fal", "se"], "false"], [["sh", "ine</w>"], "shine</w>"], [["thri", "ce</w>"], "thrice</w>"], [["sla", "ve</w>"], "slave</w>"], [["b", "are</w>"], "bare</w>"], [["wor", "th"], "worth"], [["bra", "in</w>"], "brain</w>"], [["v", "ex"], "vex"], [["in", "her"], "inher"], [["ill", "-"], "ill-"], [["su", "res</w>"], "sures</w>"], [["app", "ears</w>"], "appears</w>"], [["over", "-"], "over-"], [["la", "dies</w>"], "ladies</w>"], [["sh", "oo"], "shoo"], [["be", "comes</w>"], "becomes</w>"], [["plea", "sed</w>"], "pleased</w>"], [["lou", "d</w>"], "loud</w>"], [["tur", "ned</w>"], "turned</w>"], [["asl", "eep"], "asleep"], [["Lor", "ds,</w>"], "Lords,</w>"], [["ne", "cessi"], "necessi"], [["a", ";</w>"], "a;</w>"], [["servi", "ce,</w>"], "service,</w>"], [["fell", "ow.</w>"], "fellow.</w>"], [["d", "ge.</w>"], "dge.</w>"], [["on", "e;</w>"], "one;</w>"], [["hon", "esty</w>"], "honesty</w>"], [["monstr", "ous</w>"], "monstrous</w>"], [["sir", "!</w>"], "sir!</w>"], [["H", "on"], "Hon"], [["d", "ge,</w>"], "dge,</w>"], [["ac", "cor"], "accor"], [["com", "e;</w>"], "come;</w>"], [["ther", ";</w>"], "ther;</w>"], [["gall", "ant</w>"], "gallant</w>"], [["in", "cl"], "incl"], [["swor", "d.</w>"], "sword.</w>"], [["el", ".</w>"], "el.</w>"], [["t", "s"], "ts"], [["Anton", "y.</w>"], "Antony.</w>"], [["tomorr", "ow.</w>"], "tomorrow.</w>"], [["Pri", "thee,</w>"], "Prithee,</w>"], [["wi", "tch"], "witch"], [["dea", "dly</w>"], "deadly</w>"], [["que", "en.</w>"], "queen.</w>"], [["for", ".</w>"], "for.</w>"], [["l", "er</w>"], "ler</w>"], [["cri", "ed</w>"], "cried</w>"], [["to", "day</w>"], "today</w>"], [["CHAR", "LES.</w>"], "CHARLES.</w>"], [["a", "m.</w>"], "am.</w>"], [["Cy", "m"], "Cym"], [["I", "mo"], "Imo"], [["cro", "ss"], "cross"], [["le", "t.</w>"], "let.</w>"], [["WEST", "MOR"], "WESTMOR"], [["Mor", "tim"], "Mortim"], [["T", "T"], "TT"], [["LE", "AN"], "LEAN"], [["Fri", "ar</w>"], "Friar</w>"], [["S", "A.</w>"], "SA.</w>"], [["QU", "IN"], "QUIN"], [["Tran", "i"], "Trani"], [["SATURNIN", "US.</w>"], "SATURNINUS.</w>"], [["TAMOR", "A.</w>"], "TAMORA.</w>"], [[",", "\u2019</w>"], ",\u2019</w>"], [["ano", "ther,</w>"], "another,</w>"], [["mo", "ther.</w>"], "mother.</w>"], [["see", "ming</w>"], "seeming</w>"], [["tell", "s</w>"], "tells</w>"], [["thy", "self,</w>"], "thyself,</w>"], [["en", "s</w>"], "ens</w>"], [["ill", ".</w>"], "ill.</w>"], [["p", "le"], "ple"], [["co", "ver</w>"], "cover</w>"], [["brea", "st</w>"], "breast</w>"], [["tur", "ns</w>"], "turns</w>"], [["pu", "ts</w>"], "puts</w>"], [["ear", "ly</w>"], "early</w>"], [["re", "gi"], "regi"], [["grea", "test</w>"], "greatest</w>"], [["chee", "k</w>"], "cheek</w>"], [["v", "e!</w>"], "ve!</w>"], [["app", "eti"], "appeti"], [["king", "dom</w>"], "kingdom</w>"], [["ll", "ing</w>"], "lling</w>"], [["p", "ed</w>"], "ped</w>"], [["foo", "t,</w>"], "foot,</w>"], [["dro", "ps</w>"], "drops</w>"], [["her", "e"], "here"], [["ver", "s</w>"], "vers</w>"], [["p", "s,</w>"], "ps,</w>"], [["B", "ear</w>"], "Bear</w>"], [["ter", "ms</w>"], "terms</w>"], [["se", "es</w>"], "sees</w>"], [["ve", "-"], "ve-"], [["husb", "and.</w>"], "husband.</w>"], [["su", "per"], "super"], [["\u2019t", ";</w>"], "\u2019t;</w>"], [["Y", "oun"], "Youn"], [["si", "x</w>"], "six</w>"], [["kna", "ve,</w>"], "knave,</w>"], [["li", "ke"], "like"], [["n", ";</w>"], "n;</w>"], [["y", "ears,</w>"], "years,</w>"], [["ma", "jesty</w>"], "majesty</w>"], [["con", "temp"], "contemp"], [["wi", "se,</w>"], "wise,</w>"], [["for", "th.</w>"], "forth.</w>"], [["Sta", "y,</w>"], "Stay,</w>"], [["bl", "y</w>"], "bly</w>"], [["ear", "th.</w>"], "earth.</w>"], [["pun", "ish"], "punish"], [["ligh", "t"], "light"], [["Lea", "ve</w>"], "Leave</w>"], [["groun", "d,</w>"], "ground,</w>"], [["fa", "in"], "fain"], [["Bet", "ween</w>"], "Between</w>"], [["ra", "ise</w>"], "raise</w>"], [["Se", "e,</w>"], "See,</w>"], [["x", ".</w>"], "x.</w>"], [["Or", "lan"], "Orlan"], [["b", "ru"], "bru"], [["W", "in"], "Win"], [["L", "o,</w>"], "Lo,</w>"], [["Ju", "sti"], "Justi"], [["AR", "VIR"], "ARVIR"], [["ARVIR", "AG"], "ARVIRAG"], [["trea", "son</w>"], "treason</w>"], [["AR", "CH"], "ARCH"], [["OP", ".</w>"], "OP.</w>"], [["CLAR", "ENCE.</w>"], "CLARENCE.</w>"], [["A", "ga"], "Aga"], [["Aga", "me"], "Agame"], [["Agame", "m"], "Agamem"], [["Ex", "e"], "Exe"], [["EX", "E"], "EXE"], [["SOMER", "SET.</w>"], "SOMERSET.</w>"], [["F", "LAV"], "FLAV"], [["LOR", "EN"], "LOREN"], [["LOREN", "Z"], "LORENZ"], [["BO", "TT"], "BOTT"], [["HER", "M"], "HERM"], [["HERM", "IA.</w>"], "HERMIA.</w>"], [["Rome", "o</w>"], "Romeo</w>"], [["Timon", "\u2019s</w>"], "Timon\u2019s</w>"], [["LUC", "ETTA.</w>"], "LUCETTA.</w>"], [["\u2019", "S</w>"], "\u2019S</w>"], [["dd", "le</w>"], "ddle</w>"], [["y", "ear</w>"], "year</w>"], [["win", "d,</w>"], "wind,</w>"], [["qu", "it"], "quit"], [["kind", "ness</w>"], "kindness</w>"], [["da", "ys,</w>"], "days,</w>"], [["some", "times</w>"], "sometimes</w>"], [["ma", "in</w>"], "main</w>"], [["jeal", "ous"], "jealous"], [["a", "chi"], "achi"], [["ba", "stard</w>"], "bastard</w>"], [["dur", "st</w>"], "durst</w>"], [["tongu", "es</w>"], "tongues</w>"], [["ran", "k</w>"], "rank</w>"], [["s", "mell</w>"], "smell</w>"], [["n", "ing,</w>"], "ning,</w>"], [["con", "stan"], "constan"], [["la", "te,</w>"], "late,</w>"], [["bl", "es</w>"], "bles</w>"], [["w", "ood</w>"], "wood</w>"], [["D", "ear</w>"], "Dear</w>"], [["pri", "z"], "priz"], [["per", "jur"], "perjur"], [["F", "LOR"], "FLOR"], [["Pa", "ge,</w>"], "Page,</w>"], [["Lor", "ds</w>"], "Lords</w>"], [["t", "ears.</w>"], "tears.</w>"], [["Fare", "well.</w>"], "Farewell.</w>"], [["pa", "ins</w>"], "pains</w>"], [["gentle", "men</w>"], "gentlemen</w>"], [["y", "\u2019d</w>"], "y\u2019d</w>"], [["con", "cer"], "concer"], [["this", ";</w>"], "this;</w>"], [["ba", "de</w>"], "bade</w>"], [["o", ";</w>"], "o;</w>"], [["My", "self</w>"], "Myself</w>"], [["r", "ing,</w>"], "ring,</w>"], [["heav", "en.</w>"], "heaven.</w>"], [["ma", "tch</w>"], "match</w>"], [["ch", "-"], "ch-"], [["har", "m</w>"], "harm</w>"], [["mer", "ri"], "merri"], [["bo", "y"], "boy"], [["l", "\u2019d</w>"], "l\u2019d</w>"], [["Tomorr", "ow</w>"], "Tomorrow</w>"], [["en", "ce;</w>"], "ence;</w>"], [["[_", "A</w>"], "[_A</w>"], [["ho", "st"], "host"], [["sh", "rew"], "shrew"], [["dar", "es</w>"], "dares</w>"], [["ton", "ight</w>"], "tonight</w>"], [["y", "ea,</w>"], "yea,</w>"], [["Gu", "il"], "Guil"], [["recei", "ved</w>"], "received</w>"], [["H", "old</w>"], "Hold</w>"], [["n", "ar"], "nar"], [["te", ";</w>"], "te;</w>"], [["gra", "ve.</w>"], "grave.</w>"], [["tur", "n\u2019d</w>"], "turn\u2019d</w>"], [["mali", "ce</w>"], "malice</w>"], [["al", "s</w>"], "als</w>"], [["com", "b"], "comb"], [["do", "or,</w>"], "door,</w>"], [["Re", "me"], "Reme"], [["present", "ly.</w>"], "presently.</w>"], [["tri", "bun"], "tribun"], [["H", "old,</w>"], "Hold,</w>"], [["pri", "thee</w>"], "prithee</w>"], [["fan", "ta"], "fanta"], [["hi", "t</w>"], "hit</w>"], [["sor", "t</w>"], "sort</w>"], [["k", "in</w>"], "kin</w>"], [["ARVIRAG", "US.</w>"], "ARVIRAGUS.</w>"], [["Plan", "ta"], "Planta"], [["C", "OL"], "COL"], [["ILL", "E.</w>"], "ILLE.</w>"], [["Tro", "y</w>"], "Troy</w>"], [["B", "LE.</w>"], "BLE.</w>"], [["B", "i"], "Bi"], [["PHIL", "IP"], "PHILIP"], [["B", "an"], "Ban"], [["LORENZ", "O.</w>"], "LORENZO.</w>"], [["BOTT", "OM.</w>"], "BOTTOM.</w>"], [["S", "UR"], "SUR"], [["su", "m</w>"], "sum</w>"], [["flow", "ers</w>"], "flowers</w>"], [["poss", "ess"], "possess"], [["ev", "il</w>"], "evil</w>"], [["c", "eremon"], "ceremon"], [["there", "in</w>"], "therein</w>"], [["fa", "m"], "fam"], [["p", "ear"], "pear"], [["cor", "rup"], "corrup"], [["sp", "ite</w>"], "spite</w>"], [["ab", "s"], "abs"], [["mo", "i"], "moi"], [["in", "stant</w>"], "instant</w>"], [["t", "rans"], "trans"], [["fa", "mili"], "famili"], [["Can", "not</w>"], "Cannot</w>"], [["t", "ran"], "tran"], [["st", "and,</w>"], "stand,</w>"], [["rema", "in</w>"], "remain</w>"], [["ma", "d.</w>"], "mad.</w>"], [["b", "bed</w>"], "bbed</w>"], [["war", "ran"], "warran"], [["&", "c"], "&c"], [["ti", "es,</w>"], "ties,</w>"], [["el", "y,</w>"], "ely,</w>"], [["be", ";</w>"], "be;</w>"], [["b", "ought</w>"], "bought</w>"], [["f", "loo"], "floo"], [["whi", "sp"], "whisp"], [["t", "s._]</w>"], "ts._]</w>"], [["en", "ta"], "enta"], [["DI", "ANA.</w>"], "DIANA.</w>"], [["lo", "dg"], "lodg"], [["i", "es,</w>"], "ies,</w>"], [["o\u2019", "clo"], "o\u2019clo"], [["tt", "le</w>"], "ttle</w>"], [["A", "dieu"], "Adieu"], [["po", "ll"], "poll"], [["c", "ate</w>"], "cate</w>"], [["b", "ow</w>"], "bow</w>"], [["ea", "g"], "eag"], [["pri", "son</w>"], "prison</w>"], [["letter", ".</w>"], "letter.</w>"], [["thin", "ks,</w>"], "thinks,</w>"], [["Ha", ",</w>"], "Ha,</w>"], [["en", "ce"], "ence"], [["Ab", "out</w>"], "About</w>"], [["pati", "ence,</w>"], "patience,</w>"], [["w", "s</w>"], "ws</w>"], [["Cy", "pru"], "Cypru"], [["th", "us?</w>"], "thus?</w>"], [["bl", "ows</w>"], "blows</w>"], [["r", "e.</w>"], "re.</w>"], [["ee", "per"], "eeper"], [["great", "ness</w>"], "greatness</w>"], [["citi", "zen"], "citizen"], [["co", "z"], "coz"], [["?", "_</w>"], "?_</w>"], [["che", "er</w>"], "cheer</w>"], [["p", "ound</w>"], "pound</w>"], [["AU", "F"], "AUF"], [["hi", "s.</w>"], "his.</w>"], [["fare", "well,</w>"], "farewell,</w>"], [["G", "A"], "GA"], [["Luci", "us,</w>"], "Lucius,</w>"], [["BR", "A"], "BRA"], [["La", "er"], "Laer"], [["Yor", "k.</w>"], "York.</w>"], [["IS", "H"], "ISH"], [["Westmor", "el"], "Westmorel"], [["W", "ind"], "Wind"], [["CH", "AM"], "CHAM"], [["CHAM", "BER"], "CHAMBER"], [["CHAMBER", "LA"], "CHAMBERLA"], [["EXE", "TER.</w>"], "EXETER.</w>"], [["ad", "u"], "adu"], [["PUC", "ELL"], "PUCELL"], [["PUCELL", "E.</w>"], "PUCELLE.</w>"], [["SH", "EPH"], "SHEPH"], [["SHEPH", "ER"], "SHEPHER"], [["SHEPHER", "D.</w>"], "SHEPHERD.</w>"], [["FLAV", "IUS.</w>"], "FLAVIUS.</w>"], [["Pand", "ar"], "Pandar"], [["Mar", "in"], "Marin"], [["AR", "IEL.</w>"], "ARIEL.</w>"], [["FLOR", "IZ"], "FLORIZ"], [["PRINC", "E</w>"], "PRINCE</w>"], [["d", "ance</w>"], "dance</w>"], [["ima", "ge</w>"], "image</w>"], [["remembran", "ce</w>"], "remembrance</w>"], [["off", "end</w>"], "offend</w>"], [["de", "ca"], "deca"], [["me", "ant</w>"], "meant</w>"], [["judge", "ment</w>"], "judgement</w>"], [["me", "thinks</w>"], "methinks</w>"], [["r", "hy"], "rhy"], [["brea", "the</w>"], "breathe</w>"], [["wi", "de</w>"], "wide</w>"], [["per", "fect</w>"], "perfect</w>"], [["bos", "om"], "bosom"], [["vi", "sa"], "visa"], [["t", "ea"], "tea"], [["bear", ",</w>"], "bear,</w>"], [["loo", "k,</w>"], "look,</w>"], [["fi", "ery</w>"], "fiery</w>"], [["n", "one,</w>"], "none,</w>"], [["wi", "ts</w>"], "wits</w>"], [["for", "swor"], "forswor"], [["ti", "ed</w>"], "tied</w>"], [["bir", "ds</w>"], "birds</w>"], [["stri", "f"], "strif"], [["se", ":</w>"], "se:</w>"], [["fa", "me</w>"], "fame</w>"], [["dig", "n"], "dign"], [["Sat", "ur"], "Satur"], [["for", "ward</w>"], "forward</w>"], [["es", "ts</w>"], "ests</w>"], [["ti", "c</w>"], "tic</w>"], [["ac", "ci"], "acci"], [["hea", "lth</w>"], "health</w>"], [["pp", "ing</w>"], "pping</w>"], [["stree", "t.</w>"], "street.</w>"], [["n", "er</w>"], "ner</w>"], [["Pa", "ge.</w>"], "Page.</w>"], [["f", "ight.</w>"], "fight.</w>"], [["thru", "st</w>"], "thrust</w>"], [["war", ".</w>"], "war.</w>"], [["mistres", "s.</w>"], "mistress.</w>"], [["r", "are</w>"], "rare</w>"], [["\u2019t", "?</w>"], "\u2019t?</w>"], [["M", "any</w>"], "Many</w>"], [["mo", "dest</w>"], "modest</w>"], [["in", "fin"], "infin"], [["hand", ";</w>"], "hand;</w>"], [["busin", "ess.</w>"], "business.</w>"], [["king", ";</w>"], "king;</w>"], [["nigh", "t;</w>"], "night;</w>"], [["ter", "ri"], "terri"], [["him", "._]</w>"], "him._]</w>"], [["ti", "ly</w>"], "tily</w>"], [["n", "ea"], "nea"], [["men", "!</w>"], "men!</w>"], [["gentle", "man.</w>"], "gentleman.</w>"], [["W", "a"], "Wa"], [["Cleopat", "ra"], "Cleopatra"], [["Athen", "s.</w>"], "Athens.</w>"], [["bassa", "d"], "bassad"], [["ER", "</w>"], "ER</w>"], [["el", "se.</w>"], "else.</w>"], [["her", "!</w>"], "her!</w>"], [["go", "?</w>"], "go?</w>"], [["Whi", "les</w>"], "Whiles</w>"], [["M", "ur"], "Mur"], [["ano", "ther.</w>"], "another.</w>"], [["Ca", "ius</w>"], "Caius</w>"], [["H", "e\u2019ll</w>"], "He\u2019ll</w>"], [["be", "yond</w>"], "beyond</w>"], [["s", "om"], "som"], [["sleep", ".</w>"], "sleep.</w>"], [["a", "vo"], "avo"], [["trea", "cher"], "treacher"], [["for", "est</w>"], "forest</w>"], [["opini", "on</w>"], "opinion</w>"], [["m", "\u2019st</w>"], "m\u2019st</w>"], [["E", "phes"], "Ephes"], [["d", "le</w>"], "dle</w>"], [["V", "i"], "Vi"], [["ctor", ",</w>"], "ctor,</w>"], [["Sen", "at"], "Senat"], [["AUF", "IDIUS.</w>"], "AUFIDIUS.</w>"], [["all", ";</w>"], "all;</w>"], [["ing", "._]</w>"], "ing._]</w>"], [["Pis", "ani"], "Pisani"], [["Luci", "us</w>"], "Lucius</w>"], [["Hor", "ati"], "Horati"], [["ROSENCRANTZ", ".</w>"], "ROSENCRANTZ.</w>"], [["Thom", "as</w>"], "Thomas</w>"], [["B", "ISH"], "BISH"], [["CHAMBERLA", "IN.</w>"], "CHAMBERLAIN.</w>"], [["Falsta", "ff</w>"], "Falstaff</w>"], [["Al", "ban"], "Alban"], [["Clar", "ence,</w>"], "Clarence,</w>"], [["Gloucester", "\u2019s</w>"], "Gloucester\u2019s</w>"], [["E", "LEAN"], "ELEAN"], [["SIM", "P"], "SIMP"], [["ELL", ".</w>"], "ELL.</w>"], [["PHILIP", ".</w>"], "PHILIP.</w>"], [["LA", "UN"], "LAUN"], [["LAUN", "CE"], "LAUNCE"], [["IN", "O.</w>"], "INO.</w>"], [["P", "adu"], "Padu"], [["BI", "ANC"], "BIANC"], [["A", "EN"], "AEN"], [["AEN", "E"], "AENE"], [["FLORIZ", "EL.</w>"], "FLORIZEL.</w>"], [["fair", "est</w>"], "fairest</w>"], [["t", "y\u2019s</w>"], "ty\u2019s</w>"], [["bre", "ed</w>"], "breed</w>"], [["sigh", "t,</w>"], "sight,</w>"], [["de", "ligh"], "deligh"], [["dom", ",</w>"], "dom,</w>"], [["m", "om"], "mom"], [["ra", "ge,</w>"], "rage,</w>"], [["me", "d,</w>"], "med,</w>"], [["res", "tor"], "restor"], [["glor", "ious</w>"], "glorious</w>"], [["Al", "though</w>"], "Although</w>"], [["n", "ine</w>"], "nine</w>"], [["cu", "ri"], "curi"], [["pa", "in</w>"], "pain</w>"], [["Th", "rough</w>"], "Through</w>"], [["ang", "er</w>"], "anger</w>"], [["h", "ell,</w>"], "hell,</w>"], [["se", "qu"], "sequ"], [["ge", "d,</w>"], "ged,</w>"], [["sta", "y.</w>"], "stay.</w>"], [["ha", "vi"], "havi"], [["gra", "ve,</w>"], "grave,</w>"], [["brea", "th"], "breath"], [["i", "ses</w>"], "ises</w>"], [["fin", "ds</w>"], "finds</w>"], [["neg", "le"], "negle"], [["de", "p"], "dep"], [["pois", "on"], "poison"], [["di", "stra"], "distra"], [["rea", "son,</w>"], "reason,</w>"], [["v", "ows</w>"], "vows</w>"], [["vir", "g"], "virg"], [["camp", ".</w>"], "camp.</w>"], [["king", "\u2019s</w>"], "king\u2019s</w>"], [["cour", "ti"], "courti"], [["que", "en"], "queen"], [["it", "self,</w>"], "itself,</w>"], [["sh", "ut</w>"], "shut</w>"], [["f", "ought</w>"], "fought</w>"], [["f", "oul"], "foul"], [["s", "\u2019d,</w>"], "s\u2019d,</w>"], [["in", "-"], "in-"], [["!", "_</w>"], "!_</w>"], [["bo", "ys</w>"], "boys</w>"], [["the", "y"], "they"], [["sw", "ell"], "swell"], [["obe", "y</w>"], "obey</w>"], [["awa", "y;</w>"], "away;</w>"], [["y", "onder</w>"], "yonder</w>"], [["b", "end</w>"], "bend</w>"], [["wa", "sh</w>"], "wash</w>"], [["ther", "?</w>"], "ther?</w>"], [["Whi", "ther</w>"], "Whither</w>"], [["disc", "over"], "discover"], [["\u2019t", "will</w>"], "\u2019twill</w>"], [["al", "ar"], "alar"], [["n", "?</w>"], "n?</w>"], [["va", "in</w>"], "vain</w>"], [["F", "oo"], "Foo"], [["er", "._]</w>"], "er._]</w>"], [["po", "ck"], "pock"], [["tr", "un"], "trun"], [["cr", "own.</w>"], "crown.</w>"], [["vi", "ll"], "vill"], [["Or", ",</w>"], "Or,</w>"], [["La", "y</w>"], "Lay</w>"], [["SA", "Y"], "SAY"], [["c", "ree"], "cree"], [["Fo", "llow</w>"], "Follow</w>"], [["lie", "u"], "lieu"], [["again", ";</w>"], "again;</w>"], [["on", "\u2019t.</w>"], "on\u2019t.</w>"], [["ow", "s.</w>"], "ows.</w>"], [["di", "a"], "dia"], [["countr", "y\u2019s</w>"], "country\u2019s</w>"], [["bu", "tch"], "butch"], [["sh", "eep"], "sheep"], [["whol", "es"], "wholes"], [["ho", "llow</w>"], "hollow</w>"], [["\u2019", "d!</w>"], "\u2019d!</w>"], [["consci", "ence,</w>"], "conscience,</w>"], [["O", "ld</w>"], "Old</w>"], [["UN", "T.</w>"], "UNT.</w>"], [["chall", "en"], "challen"], [["Ro", "ber"], "Rober"], [["Isa", "be"], "Isabe"], [["LAUNCE", "LET.</w>"], "LAUNCELET.</w>"], [["CA", "IUS.</w>"], "CAIUS.</w>"], [["HER", "O.</w>"], "HERO.</w>"], [["BIANC", "A.</w>"], "BIANCA.</w>"], [["AENE", "AS.</w>"], "AENEAS.</w>"], [["Mal", "voli"], "Malvoli"], [["COUN", "TR"], "COUNTR"], [["COUNTR", "Y"], "COUNTRY"], [["trea", "sure</w>"], "treasure</w>"], [["gla", "ss</w>"], "glass</w>"], [["l", "y?</w>"], "ly?</w>"], [["it", ":</w>"], "it:</w>"], [["si", "ts</w>"], "sits</w>"], [["comm", "it"], "commit"], [["Mu", "ch</w>"], "Much</w>"], [["nu", "mber</w>"], "number</w>"], [["heaven", "\u2019s</w>"], "heaven\u2019s</w>"], [["tri", "ump"], "triump"], [["p", "hi"], "phi"], [["tri", "umph"], "triumph"], [["re", "cor"], "recor"], [["Wh", "ether</w>"], "Whether</w>"], [["ad", "d</w>"], "add</w>"], [["ere", "d,</w>"], "ered,</w>"], [["sha", "ll"], "shall"], [["int", "ell"], "intell"], [["la", "st,</w>"], "last,</w>"], [["fur", "y</w>"], "fury</w>"], [["won", "t</w>"], "wont</w>"], [["cer", "tain"], "certain"], [["ac", "cu"], "accu"], [["lip", "s,</w>"], "lips,</w>"], [["B", "rea"], "Brea"], [["An", "g"], "Ang"], [["Coun", "t</w>"], "Count</w>"], [["Youn", "g</w>"], "Young</w>"], [["an", "on.</w>"], "anon.</w>"], [["our", "\u2019d</w>"], "our\u2019d</w>"], [["il", "s,</w>"], "ils,</w>"], [["s", "\u2014"], "s\u2014"], [["at", "s</w>"], "ats</w>"], [["af", "ra"], "afra"], [["lad", "y?</w>"], "lady?</w>"], [["ton", "igh"], "tonigh"], [["pati", "ence.</w>"], "patience.</w>"], [["ri", "de</w>"], "ride</w>"], [["Pard", "on</w>"], "Pardon</w>"], [["oa", "th,</w>"], "oath,</w>"], [["ca", "mp</w>"], "camp</w>"], [["h", "orr"], "horr"], [["A", "ll"], "All"], [["innoc", "ent</w>"], "innocent</w>"], [["loo", "k\u2019d</w>"], "look\u2019d</w>"], [["high", "ness</w>"], "highness</w>"], [["cri", "es</w>"], "cries</w>"], [["Ha", "ving</w>"], "Having</w>"], [["E", "P"], "EP"], [["bu", "ck"], "buck"], [["w", "ine</w>"], "wine</w>"], [["Pom", "pe"], "Pompe"], [["Caesar", ".</w>"], "Caesar.</w>"], [["sa", "va"], "sava"], [["sup", "per"], "supper"], [["ho", "st</w>"], "host</w>"], [["arm", "ed</w>"], "armed</w>"], [["fai", "th.</w>"], "faith.</w>"], [["che", "er"], "cheer"], [["drea", "d</w>"], "dread</w>"], [["For", "est</w>"], "Forest</w>"], [["master", "s,</w>"], "masters,</w>"], [["jud", "ge</w>"], "judge</w>"], [["Gra", "ce,</w>"], "Grace,</w>"], [["cont", "ent.</w>"], "content.</w>"], [["C", "ous"], "Cous"], [["gar", ",</w>"], "gar,</w>"], [["LUC", "IANA.</w>"], "LUCIANA.</w>"], [["Bapti", "sta"], "Baptista"], [["O", "x"], "Ox"], [["Talbo", "t</w>"], "Talbot</w>"], [["ELEAN", "OR.</w>"], "ELEANOR.</w>"], [["I", "TH"], "ITH"], [["Hu", "ber"], "Huber"], [["B", "Y.</w>"], "BY.</w>"], [["SIM", "ON"], "SIMON"], [["SIMON", "ID"], "SIMONID"], [["Ta", "mor"], "Tamor"], [["COUNTRY", "MAN.</w>"], "COUNTRYMAN.</w>"], [["in", "crea"], "increa"], [["eff", "ect</w>"], "effect</w>"], [["gi", "ft</w>"], "gift</w>"], [["sta", "y,</w>"], "stay,</w>"], [["our", "ing</w>"], "ouring</w>"], [["di", "tion</w>"], "dition</w>"], [["re", "ligi"], "religi"], [["bon", "es</w>"], "bones</w>"], [["F", "ull</w>"], "Full</w>"], [["lie", "f</w>"], "lief</w>"], [["sp", "it"], "spit"], [["bir", "th,</w>"], "birth,</w>"], [["sea", "t</w>"], "seat</w>"], [["jo", "y,</w>"], "joy,</w>"], [["ma", "de,</w>"], "made,</w>"], [["gre", "et</w>"], "greet</w>"], [["sl", "ow</w>"], "slow</w>"], [["w", "ing"], "wing"], [["R", "et"], "Ret"], [["so", "ci"], "soci"], [["dres", "s</w>"], "dress</w>"], [["d", "well"], "dwell"], [["ex", "cee"], "excee"], [["ex", "amp"], "examp"], [["dea", "d?</w>"], "dead?</w>"], [["wrong", ".</w>"], "wrong.</w>"], [["loo", "ks,</w>"], "looks,</w>"], [["fing", "er</w>"], "finger</w>"], [["1", "0"], "10"], [["N", "one</w>"], "None</w>"], [["vo", "ic"], "voic"], [["pre", "pare</w>"], "prepare</w>"], [["si", "ck"], "sick"], [["bet", "ter.</w>"], "better.</w>"], [["wi", "ther"], "wither"], [["r", "ender</w>"], "render</w>"], [["ang", "el</w>"], "angel</w>"], [["cul", "ar</w>"], "cular</w>"], [["vir", "gin"], "virgin"], [["king", "?</w>"], "king?</w>"], [["na", "tive</w>"], "native</w>"], [["ser", "p"], "serp"], [["tru", "e;</w>"], "true;</w>"], [["soldi", "ers,</w>"], "soldiers,</w>"], [["[_", "The</w>"], "[_The</w>"], [["Qui", "ck"], "Quick"], [["s", "cep"], "scep"], [["g", "ate</w>"], "gate</w>"], [["ea", "si"], "easi"], [["Than", "ks,</w>"], "Thanks,</w>"], [["justi", "ce,</w>"], "justice,</w>"], [["a", "tion.</w>"], "ation.</w>"], [["sc", "ur"], "scur"], [["desi", "res</w>"], "desires</w>"], [["un", "til</w>"], "until</w>"], [["under", "take</w>"], "undertake</w>"], [["mou", "th,</w>"], "mouth,</w>"], [["o", "ther.</w>"], "other.</w>"], [["H", "al"], "Hal"], [["fur", "ther.</w>"], "further.</w>"], [["di", "stres"], "distres"], [["Tru", "mp"], "Trump"], [["di", "es,</w>"], "dies,</w>"], [["Char", "mi"], "Charmi"], [["satis", "fi"], "satisfi"], [["ere", "d.</w>"], "ered.</w>"], [["ge", "d.</w>"], "ged.</w>"], [["sea", "-"], "sea-"], [["schoo", "l"], "school"], [["sa", "y!</w>"], "say!</w>"], [["hate", "ful</w>"], "hateful</w>"], [["safe", "ty</w>"], "safety</w>"], [["un", "t,</w>"], "unt,</w>"], [["Pho", "e"], "Phoe"], [["co", "ff"], "coff"], [["thr", "ough"], "through"], [["pr", "onoun"], "pronoun"], [["POL", "Y"], "POLY"], [["ll", "\u2019d</w>"], "ll\u2019d</w>"], [["LOR", "D</w>"], "LORD</w>"], [["Pa", "ge</w>"], "Page</w>"], [["WO", "O"], "WOO"], [["Somer", "set</w>"], "Somerset</w>"], [["M", ".</w>"], "M.</w>"], [["GE", "OR"], "GEOR"], [["OL", "D</w>"], "OLD</w>"], [["SC", "A.</w>"], "SCA.</w>"], [["L", "ONG"], "LONG"], [["LONG", "AV"], "LONGAV"], [["SIMONID", "ES.</w>"], "SIMONIDES.</w>"], [["Cat", "es"], "Cates"], [["AL", "ON"], "ALON"], [["ALON", "S"], "ALONS"], [["thin", "e.</w>"], "thine.</w>"], [["mer", "\u2019s</w>"], "mer\u2019s</w>"], [["husband", "\u2019s</w>"], "husband\u2019s</w>"], [["le", "ts</w>"], "lets</w>"], [["every", "thing</w>"], "everything</w>"], [["plea", "sure,</w>"], "pleasure,</w>"], [["best", "ow</w>"], "bestow</w>"], [["clou", "ds</w>"], "clouds</w>"], [["wrong", "s</w>"], "wrongs</w>"], [["sigh", "s</w>"], "sighs</w>"], [["rea", "sons</w>"], "reasons</w>"], [["solem", "n</w>"], "solemn</w>"], [["S", "how</w>"], "Show</w>"], [["sha", "me"], "shame"], [["ru", "pt</w>"], "rupt</w>"], [["d", "re"], "dre"], [["cow", "ard</w>"], "coward</w>"], [["de", "light</w>"], "delight</w>"], [["pri", "vile"], "privile"], [["cr", "oo"], "croo"], [["st", "op"], "stop"], [["c", "tion.</w>"], "ction.</w>"], [["hop", "es</w>"], "hopes</w>"], [["l", "ing,</w>"], "ling,</w>"], [["ab", "us"], "abus"], [["purpo", "se,</w>"], "purpose,</w>"], [["th", "us.</w>"], "thus.</w>"], [["youn", "g,</w>"], "young,</w>"], [["t", "ear"], "tear"], [["Ca", "me</w>"], "Came</w>"], [["appro", "a"], "approa"], [["an", "t.</w>"], "ant.</w>"], [["p", "our</w>"], "pour</w>"], [["ces", "s,</w>"], "cess,</w>"], [["bo", "dy.</w>"], "body.</w>"], [["f", "ed</w>"], "fed</w>"], [["ter", "r"], "terr"], [["el", "se,</w>"], "else,</w>"], [["sir", "rah,</w>"], "sirrah,</w>"], [["pro", "sper"], "prosper"], [["soldi", "er,</w>"], "soldier,</w>"], [["a", "id</w>"], "aid</w>"], [["des", "c"], "desc"], [["H", "ow"], "How"], [["M", "an"], "Man"], [["too", ";</w>"], "too;</w>"], [["\u2019e", "m,</w>"], "\u2019em,</w>"], [["po", "st</w>"], "post</w>"], [["Lad", "y,</w>"], "Lady,</w>"], [["ce", "forth</w>"], "ceforth</w>"], [["Alexand", "ria.</w>"], "Alexandria.</w>"], [["te", "-"], "te-"], [["E", "no"], "Eno"], [["Eno", "bar"], "Enobar"], [["ha", "!</w>"], "ha!</w>"], [["affec", "tion</w>"], "affection</w>"], [["d", "es,</w>"], "des,</w>"], [["D", "id"], "Did"], [["n", "ing.</w>"], "ning.</w>"], [["stu", "ff</w>"], "stuff</w>"], [["pass", "ing</w>"], "passing</w>"], [["Troil", "us</w>"], "Troilus</w>"], [["Mar", "i"], "Mari"], [["ti", "de</w>"], "tide</w>"], [["ini", "us</w>"], "inius</w>"], [["si", "ck,</w>"], "sick,</w>"], [["Co", "ll"], "Coll"], [["ne", "phe"], "nephe"], [["Lond", "on</w>"], "London</w>"], [["B", "roo"], "Broo"], [["st", "ard"], "stard"], [["B", "ish"], "Bish"], [["Clar", "ence</w>"], "Clarence</w>"], [["H", "ugh"], "Hugh"], [["Suffol", "k,</w>"], "Suffolk,</w>"], [["STAN", "LE"], "STANLE"], [["D", "un"], "Dun"], [["LONGAV", "ILLE.</w>"], "LONGAVILLE.</w>"], [["Tim", "on</w>"], "Timon</w>"], [["MAL", "COL"], "MALCOL"], [["H", "IP"], "HIP"], [["HIP", "POLY"], "HIPPOLY"], [["LYS", "IM"], "LYSIM"], [["LYSIM", "ACH"], "LYSIMACH"], [["P", "IR"], "PIR"], [["Rome", "o,</w>"], "Romeo,</w>"], [["ALONS", "O.</w>"], "ALONSO.</w>"], [["A", "ar"], "Aar"], [["FO", "UR"], "FOUR"], [["th", "\u2019s</w>"], "th\u2019s</w>"], [["al", ";</w>"], "al;</w>"], [["p", "il"], "pil"], [["tr", "e</w>"], "tre</w>"], [["da", "y?</w>"], "day?</w>"], [["br", "oo"], "broo"], [["P", "lu"], "Plu"], [["acqua", "inted</w>"], "acquainted</w>"], [["st", "-"], "st-"], [["as", "sa"], "assa"], [["t", "end</w>"], "tend</w>"], [["jewel", "</w>"], "jewel</w>"], [["en", "joy</w>"], "enjoy</w>"], [["dr", "own</w>"], "drown</w>"], [["sigh", "t.</w>"], "sight.</w>"], [["buri", "ed</w>"], "buried</w>"], [["lover", "s</w>"], "lovers</w>"], [["pa", "per</w>"], "paper</w>"], [["see", "ing</w>"], "seeing</w>"], [["hoo", "d,</w>"], "hood,</w>"], [["bea", "st</w>"], "beast</w>"], [["char", "ac"], "charac"], [["ti", "v"], "tiv"], [["wat", "ch"], "watch"], [["wa", "ke</w>"], "wake</w>"], [["br", "ow</w>"], "brow</w>"], [["fa", "ced</w>"], "faced</w>"], [["d", "less</w>"], "dless</w>"], [["bor", "n,</w>"], "born,</w>"], [["de", "th</w>"], "deth</w>"], [["S", "p"], "Sp"], [["t", "ol"], "tol"], [["acqua", "int"], "acquaint"], [["as", "si"], "assi"], [["argu", "ment</w>"], "argument</w>"], [["in", "f"], "inf"], [["bes", "t.</w>"], "best.</w>"], [["s", "ou"], "sou"], [["la", "mb"], "lamb"], [["p", "le</w>"], "ple</w>"], [["won", "dr"], "wondr"], [["pro", "ph"], "proph"], [["s", "in,</w>"], "sin,</w>"], [["v", "ent</w>"], "vent</w>"], [["re", "pro"], "repro"], [["la", "sting</w>"], "lasting</w>"], [["p", "om"], "pom"], [["r", "ent</w>"], "rent</w>"], [["be", "?</w>"], "be?</w>"], [["war", "d,</w>"], "ward,</w>"], [["run", "s</w>"], "runs</w>"], [["sw", "ear"], "swear"], [["with", "al</w>"], "withal</w>"], [["Per", "son"], "Person"], [["pit", "y,</w>"], "pity,</w>"], [["tri", "ck</w>"], "trick</w>"], [["with", "al,</w>"], "withal,</w>"], [["busin", "ess,</w>"], "business,</w>"], [["deni", "ed</w>"], "denied</w>"], [["bo", "dy,</w>"], "body,</w>"], [["[_Sing", "s._]</w>"], "[_Sings._]</w>"], [["sal", "t</w>"], "salt</w>"], [["encoun", "ter</w>"], "encounter</w>"], [["v", "\u2019d,</w>"], "v\u2019d,</w>"], [["Fren", "ch"], "French"], [["Cap", "tain</w>"], "Captain</w>"], [["b", "es</w>"], "bes</w>"], [["Tru", "ly,</w>"], "Truly,</w>"], [["l", "ent</w>"], "lent</w>"], [["crea", "ture</w>"], "creature</w>"], [["Pra", "y,</w>"], "Pray,</w>"], [["chil", "d.</w>"], "child.</w>"], [["condu", "ct</w>"], "conduct</w>"], [["kno", "ck</w>"], "knock</w>"], [["t", "ly.</w>"], "tly.</w>"], [["M", "en</w>"], "Men</w>"], [["y", "ing,</w>"], "ying,</w>"], [["hand", "ker"], "handker"], [["Pomp", "ey"], "Pompey"], [["l", "ess.</w>"], "less.</w>"], [["Ou", "t,</w>"], "Out,</w>"], [["new", "s.</w>"], "news.</w>"], [["d", "\u2014"], "d\u2014"], [["int", "end</w>"], "intend</w>"], [["d", "rew</w>"], "drew</w>"], [["of", "t,</w>"], "oft,</w>"], [["hal", "f"], "half"], [["n", "in"], "nin"], [["cra", "ve</w>"], "crave</w>"], [["Did", "st</w>"], "Didst</w>"], [["L", "ong</w>"], "Long</w>"], [["par", "ted</w>"], "parted</w>"], [["Servan", "t.</w>"], "Servant.</w>"], [["Do", "es</w>"], "Does</w>"], [["O", "FF"], "OFF"], [["OFF", "IC"], "OFFIC"], [["OFFIC", "ER.</w>"], "OFFICER.</w>"], [["CAP", "TA"], "CAPTA"], [["\u201c", "I</w>"], "\u201cI</w>"], [["Di", "ome"], "Diome"], [["resol", "u"], "resolu"], [["ci", "li"], "cili"], [["k", "-"], "k-"], [["whor", "es"], "whores"], [["as", "s</w>"], "ass</w>"], [["E", ",</w>"], "E,</w>"], [["WILLI", "AM"], "WILLIAM"], [["bear", "d</w>"], "beard</w>"], [["m", "eat</w>"], "meat</w>"], [["G", "ar"], "Gar"], [["venge", "ance</w>"], "vengeance</w>"], [["s", "ought</w>"], "sought</w>"], [["con", "j"], "conj"], [["Sco", "t"], "Scot"], [["do", "g,</w>"], "dog,</w>"], [["na", "ked</w>"], "naked</w>"], [["fa", "tal</w>"], "fatal</w>"], [["Marti", "us</w>"], "Martius</w>"], [["ra", "scal"], "rascal"], [["MAR", "C"], "MARC"], [["soul", ".</w>"], "soul.</w>"], [["ch", "bi"], "chbi"], [["ARCH", "BISH"], "ARCHBISH"], [["CON", "STA"], "CONSTA"], [["CONSTA", "BLE.</w>"], "CONSTABLE.</w>"], [["Re", "g"], "Reg"], [["Cardin", "al</w>"], "Cardinal</w>"], [["GEOR", "GE.</w>"], "GEORGE.</w>"], [["DU", "L"], "DUL"], [["CA", "SCA.</w>"], "CASCA.</w>"], [["MALCOL", "M.</w>"], "MALCOLM.</w>"], [["LYSIMACH", "US.</w>"], "LYSIMACHUS.</w>"], [["BI", "ON"], "BION"], [["BION", "D"], "BIOND"], [["TR", "INC"], "TRINC"], [["TRINC", "UL"], "TRINCUL"], [["AL", "CI"], "ALCI"], [["ALCI", "BI"], "ALCIBI"], [["ALCIBI", "AD"], "ALCIBIAD"], [["Cont", "ents</w>"], "Contents</w>"], [["FOUR", "TH</w>"], "FOURTH</w>"], [["fair", "ly</w>"], "fairly</w>"], [["majest", "y,</w>"], "majesty,</w>"], [["Mu", "si"], "Musi"], [["ma", "k"], "mak"], [["ra", "in</w>"], "rain</w>"], [["for", "bid</w>"], "forbid</w>"], [["hear", "t;</w>"], "heart;</w>"], [["brea", "st,</w>"], "breast,</w>"], [["ar", "t.</w>"], "art.</w>"], [["opp", "res"], "oppres"], [["F", "la"], "Fla"], [["com", "par"], "compar"], [["bes", "t,</w>"], "best,</w>"], [["in", "ven"], "inven"], [["enter", "tain</w>"], "entertain</w>"], [["re", "?</w>"], "re?</w>"], [["jeal", "ous</w>"], "jealous</w>"], [["f", "lies</w>"], "flies</w>"], [["se", "est</w>"], "seest</w>"], [["sorr", "ow,</w>"], "sorrow,</w>"], [["st", "s,</w>"], "sts,</w>"], [["wondr", "ous</w>"], "wondrous</w>"], [["min", "ds</w>"], "minds</w>"], [["goo", "dness</w>"], "goodness</w>"], [["lo", "st,</w>"], "lost,</w>"], [["th", "ree"], "three"], [["te", "th</w>"], "teth</w>"], [["sa", "ying</w>"], "saying</w>"], [["ar", "ra"], "arra"], [["re", "fu"], "refu"], [["betra", "y</w>"], "betray</w>"], [["si", "de.</w>"], "side.</w>"], [["oa", "ths</w>"], "oaths</w>"], [["\u00e6", "</w>"], "\u00e6</w>"], [["parti", "cular</w>"], "particular</w>"], [["V", "ir"], "Vir"], [["bl", "own</w>"], "blown</w>"], [["com", "mo"], "commo"], [["w", "ings</w>"], "wings</w>"], [["no", "se</w>"], "nose</w>"], [["deser", "ved</w>"], "deserved</w>"], [["fell", "ows</w>"], "fellows</w>"], [["[_", "Gi"], "[_Gi"], [["il", "\u2019d</w>"], "il\u2019d</w>"], [["fa", "il</w>"], "fail</w>"], [["viol", "ent</w>"], "violent</w>"], [["se", "-"], "se-"], [["sen", "t,</w>"], "sent,</w>"], [["ignor", "ant</w>"], "ignorant</w>"], [["t", "ent.</w>"], "tent.</w>"], [["re", "jo"], "rejo"], [["sc", "ra"], "scra"], [["pard", "on"], "pardon"], [["min", "e;</w>"], "mine;</w>"], [["C", "er"], "Cer"], [["I", "US,</w>"], "IUS,</w>"], [["op", "posi"], "opposi"], [["th", "-"], "th-"], [["gol", "d.</w>"], "gold.</w>"], [["tim", "es,</w>"], "times,</w>"], [["chamb", "er.</w>"], "chamber.</w>"], [["mean", ",</w>"], "mean,</w>"], [["Jo", "ve</w>"], "Jove</w>"], [["mu", "tin"], "mutin"], [["emp", "ty</w>"], "empty</w>"], [["s", "\u2014</w>"], "s\u2014</w>"], [["le", "gs</w>"], "legs</w>"], [["er", ":</w>"], "er:</w>"], [["e", "ous</w>"], "eous</w>"], [["g", "li"], "gli"], [["W", "it"], "Wit"], [["li", "a"], "lia"], [["s", "ore</w>"], "sore</w>"], [["kn", "ight,</w>"], "knight,</w>"], [["ELL", "US.</w>"], "ELLUS.</w>"], [["WESTMOR", "EL"], "WESTMOREL"], [["Dou", "gla"], "Dougla"], [["spi", "ci"], "spici"], [["G", "OWER.</w>"], "GOWER.</w>"], [["Win", "ches"], "Winches"], [["ARD", "IN"], "ARDIN"], [["LO", "U"], "LOU"], [["OS", "W"], "OSW"], [["Claudi", "o</w>"], "Claudio</w>"], [["La", "un"], "Laun"], [["O", "UT"], "OUT"], [["HIPPOLY", "TA.</w>"], "HIPPOLYTA.</w>"], [["B", "OR"], "BOR"], [["BOR", "ACH"], "BORACH"], [["BO", "UL"], "BOUL"], [["A", "UM"], "AUM"], [["AUM", "ER"], "AUMER"], [["BIOND", "ELLO.</w>"], "BIONDELLO.</w>"], [["TRINCUL", "O.</w>"], "TRINCULO.</w>"], [["ALCIBIAD", "ES.</w>"], "ALCIBIADES.</w>"], [["N", "EST"], "NEST"], [["P", "AT"], "PAT"], [["PAT", "RO"], "PATRO"], [["PATRO", "CL"], "PATROCL"], [["UR", "IO.</w>"], "URIO.</w>"], [["ti", "al</w>"], "tial</w>"], [["wa", "ste</w>"], "waste</w>"], [["fiel", "d,</w>"], "field,</w>"], [["beau", "teous</w>"], "beauteous</w>"], [["fra", "me</w>"], "frame</w>"], [["win", "ter</w>"], "winter</w>"], [["wa", "s.</w>"], "was.</w>"], [["chi", "de</w>"], "chide</w>"], [["hear", "ted</w>"], "hearted</w>"], [["maid", "en</w>"], "maiden</w>"], [["wi", "t.</w>"], "wit.</w>"], [["v", "ed.</w>"], "ved.</w>"], [["wo", "e,</w>"], "woe,</w>"], [["gri", "eve</w>"], "grieve</w>"], [["loa", "th"], "loath"], [["v", "ul"], "vul"], [["al", "though</w>"], "although</w>"], [["Un", "til</w>"], "Until</w>"], [["li", "es.</w>"], "lies.</w>"], [["plea", "sure.</w>"], "pleasure.</w>"], [["wi", "sh"], "wish"], [["affair", "s</w>"], "affairs</w>"], [["sl", "u"], "slu"], [["ta", "li"], "tali"], [["att", "ending</w>"], "attending</w>"], [["vi", "ce</w>"], "vice</w>"], [["pass", "ed</w>"], "passed</w>"], [["f", "ood</w>"], "food</w>"], [["sur", "fe"], "surfe"], [["ta", "ll</w>"], "tall</w>"], [["cl", "er"], "cler"], [["con", "cea"], "concea"], [["oun", "ds,</w>"], "ounds,</w>"], [["ne", "x"], "nex"], [["on", "ic"], "onic"], [["la", "t"], "lat"], [["ca", "pa"], "capa"], [["g", "ree"], "gree"], [["ne", "ck</w>"], "neck</w>"], [["bon", "d</w>"], "bond</w>"], [["dev", "il,</w>"], "devil,</w>"], [["sleep", "ing</w>"], "sleeping</w>"], [["Dra", "mat"], "Dramat"], [["Dramat", "is</w>"], "Dramatis</w>"], [["Person", "\u00e6</w>"], "Person\u00e6</w>"], [["G", "er"], "Ger"], [["w", "ed</w>"], "wed</w>"], [["hang", "s</w>"], "hangs</w>"], [["att", "end"], "attend"], [["war", "d.</w>"], "ward.</w>"], [["h", ".</w>"], "h.</w>"], [["bet", "wixt</w>"], "betwixt</w>"], [["res", "cu"], "rescu"], [["f", "t.</w>"], "ft.</w>"], [["ra", "te</w>"], "rate</w>"], [["happ", "iness</w>"], "happiness</w>"], [["r", "ar"], "rar"], [["m", ";</w>"], "m;</w>"], [["ven", "i"], "veni"], [["coun", "c"], "counc"], [["w", "ing</w>"], "wing</w>"], [["d", "ly.</w>"], "dly.</w>"], [["b", "ind</w>"], "bind</w>"], [["enter", "pri"], "enterpri"], [["coura", "ge</w>"], "courage</w>"], [["pur", "se</w>"], "purse</w>"], [["ap", "poin"], "appoin"], [["E", "very</w>"], "Every</w>"], [["gu", "ar"], "guar"], [["no", "bili"], "nobili"], [["comp", "li"], "compli"], [["m", "ing"], "ming"], [["Se", "ba"], "Seba"], [["Seba", "sti"], "Sebasti"], [["la", "ck"], "lack"], [["ad", "van"], "advan"], [["S", "end</w>"], "Send</w>"], [["na", "ugh"], "naugh"], [["no", ";</w>"], "no;</w>"], [["sa", "cri"], "sacri"], [["har", "dly</w>"], "hardly</w>"], [["consi", "der"], "consider"], [["rea", "son.</w>"], "reason.</w>"], [["t", "es.</w>"], "tes.</w>"], [["ser", "ved</w>"], "served</w>"], [["fl", "y.</w>"], "fly.</w>"], [["lan", "ds</w>"], "lands</w>"], [["own", "ed</w>"], "owned</w>"], [["con", "fu"], "confu"], [["H", "ow?</w>"], "How?</w>"], [["hast", "e.</w>"], "haste.</w>"], [["ha", "ir"], "hair"], [["weep", "ing</w>"], "weeping</w>"], [["ea", "se</w>"], "ease</w>"], [["mo", "ck"], "mock"], [["mean", "s,</w>"], "means,</w>"], [["circum", "stan"], "circumstan"], [["Anti", "p"], "Antip"], [["Antip", "hol"], "Antiphol"], [["c", "ran"], "cran"], [["Pro", "sper"], "Prosper"], [["chur", "ch"], "church"], [["Ja", "ck</w>"], "Jack</w>"], [["FR", "EN"], "FREN"], [["FREN", "CH"], "FRENCH"], [["LAD", "Y.</w>"], "LADY.</w>"], [["col", "ours</w>"], "colours</w>"], [["gover", "n"], "govern"], [["Pol", "oni"], "Poloni"], [["n", "on</w>"], "non</w>"], [["WESTMOREL", "AND.</w>"], "WESTMORELAND.</w>"], [["Geor", "ge</w>"], "George</w>"], [["Dauph", "in</w>"], "Dauphin</w>"], [["Or", "le"], "Orle"], [["Suffol", "k</w>"], "Suffolk</w>"], [["C", "ARDIN"], "CARDIN"], [["CARDIN", "AL"], "CARDINAL"], [["N", "ER"], "NER"], [["STANLE", "Y.</w>"], "STANLEY.</w>"], [["OSW", "ALD.</w>"], "OSWALD.</w>"], [["Ju", "lie"], "Julie"], [["Laun", "ce"], "Launce"], [["For", "d,</w>"], "Ford,</w>"], [["QUIN", "CE.</w>"], "QUINCE.</w>"], [["BORACH", "IO.</w>"], "BORACHIO.</w>"], [["Ver", "on"], "Veron"], [["AUMER", "LE.</w>"], "AUMERLE.</w>"], [["NEST", "OR.</w>"], "NESTOR.</w>"], [["PATROCL", "US.</w>"], "PATROCLUS.</w>"], [["WOO", "ER.</w>"], "WOOER.</w>"], [["f", "t,</w>"], "ft,</w>"], [["gr", "ow"], "grow"], [["mor", "e;</w>"], "more;</w>"], [["B", "or"], "Bor"], [["Ti", "me</w>"], "Time</w>"], [["de", "cl"], "decl"], [["wr", "ought</w>"], "wrought</w>"], [["plea", "d</w>"], "plead</w>"], [["sigh", "</w>"], "sigh</w>"], [["stol", "\u2019n</w>"], "stol\u2019n</w>"], [["vouch", "safe</w>"], "vouchsafe</w>"], [["clo", "a"], "cloa"], [["par", "ty</w>"], "party</w>"], [["hel", "p,</w>"], "help,</w>"], [["mann", "ers</w>"], "manners</w>"], [["g", "ing</w>"], "ging</w>"], [["c", "le</w>"], "cle</w>"], [["in", "s.</w>"], "ins.</w>"], [["wor", "thi"], "worthi"], [["be", "havi"], "behavi"], [["counten", "ance</w>"], "countenance</w>"], [["s", "cap"], "scap"], [["fr", "on"], "fron"], [["well", "?</w>"], "well?</w>"], [["par", "tly</w>"], "partly</w>"], [["kn", "own,</w>"], "known,</w>"], [["drun", "k</w>"], "drunk</w>"], [["n", "er"], "ner"], [["lu", "st</w>"], "lust</w>"], [["s", "wall"], "swall"], [["-", "like</w>"], "-like</w>"], [["su", "e</w>"], "sue</w>"], [["lov", "e-"], "love-"], [["ti", "es.</w>"], "ties.</w>"], [["be", "d"], "bed"], [["doub", "t,</w>"], "doubt,</w>"], [["gi", "ving</w>"], "giving</w>"], [["lo", "st.</w>"], "lost.</w>"], [["cha", "ste</w>"], "chaste</w>"], [["FR", "AN"], "FRAN"], [["pro", "te"], "prote"], [["o", "ll"], "oll"], [["foll", "y</w>"], "folly</w>"], [["re", "pea"], "repea"], [["cho", "ice</w>"], "choice</w>"], [["is", ";</w>"], "is;</w>"], [["ma", "tion</w>"], "mation</w>"], [["sel", "ess</w>"], "seless</w>"], [["con", "fi"], "confi"], [["ex", "pe"], "expe"], [["mer", "ry,</w>"], "merry,</w>"], [["re", "cover"], "recover"], [["Fran", "c"], "Franc"], [["ra", "sc"], "rasc"], [["fi", "sh</w>"], "fish</w>"], [["prom", "ised</w>"], "promised</w>"], [["Y", ",</w>"], "Y,</w>"], [["ab", "sol"], "absol"], [["it", "self.</w>"], "itself.</w>"], [["C", "our"], "Cour"], [["swor", "ds</w>"], "swords</w>"], [["s", "na"], "sna"], [["Phi", "li"], "Phili"], [["tid", "ings</w>"], "tidings</w>"], [["liv", "es,</w>"], "lives,</w>"], [["br", "ed</w>"], "bred</w>"], [["wh", "ee"], "whee"], [["Emp", "er"], "Emper"], [["t", "s!</w>"], "ts!</w>"], [["de", "gre"], "degre"], [["A", "enea"], "Aenea"], [["or", "\u2019s</w>"], "or\u2019s</w>"], [["da", "y!</w>"], "day!</w>"], [["y", "ester"], "yester"], [["OLIV", "ER.</w>"], "OLIVER.</w>"], [["enemi", "es.</w>"], "enemies.</w>"], [["Du", "ke.</w>"], "Duke.</w>"], [["wholes", "ome</w>"], "wholesome</w>"], [["fir", "m"], "firm"], [["op", "en"], "open"], [["gu", "e.</w>"], "gue.</w>"], [["sp", "ring</w>"], "spring</w>"], [["\u201d", "?</w>"], "\u201d?</w>"], [["Bri", "tain.</w>"], "Britain.</w>"], [["C", "lo"], "Clo"], [["ta", ",</w>"], "ta,</w>"], [["Joh", "n.</w>"], "John.</w>"], [["D", "Y.</w>"], "DY.</w>"], [["G", "REY.</w>"], "GREY.</w>"], [["Margar", "et</w>"], "Margaret</w>"], [["Tro", "y.</w>"], "Troy.</w>"], [["CON", "STAN"], "CONSTAN"], [["NER", "IS"], "NERIS"], [["HER", "MI"], "HERMI"], [["Ro", "deri"], "Roderi"], [["HEL", "IC"], "HELIC"], [["BOUL", "T.</w>"], "BOULT.</w>"], [["PIR", "ITH"], "PIRITH"], [["PIRITH", "O"], "PIRITHO"], [["F", "OR"], "FOR"], [["or", "na"], "orna"], [["c", "el"], "cel"], [["weep", ",</w>"], "weep,</w>"], [["fair", "er</w>"], "fairer</w>"], [["sh", "ea"], "shea"], [["deter", "min"], "determin"], [["bri", "ef</w>"], "brief</w>"], [["min", "u"], "minu"], [["qu", "e</w>"], "que</w>"], [["fi", "erce</w>"], "fierce</w>"], [["fl", "ee"], "flee"], [["despit", "e</w>"], "despite</w>"], [["jour", "ne"], "journe"], [["k", "\u2019s</w>"], "k\u2019s</w>"], [["nigh", "t"], "night"], [["da", "y\u2019s</w>"], "day\u2019s</w>"], [["enemi", "es</w>"], "enemies</w>"], [["strong", "er</w>"], "stronger</w>"], [["is", "ing</w>"], "ising</w>"], [["bea", "ten</w>"], "beaten</w>"], [["lo", "ss,</w>"], "loss,</w>"], [["leis", "ure</w>"], "leisure</w>"], [["speci", "al</w>"], "special</w>"], [["ri", "son"], "rison"], [["Gre", "cian</w>"], "Grecian</w>"], [["o", "ce"], "oce"], [["k", "en,</w>"], "ken,</w>"], [["blu", "sh</w>"], "blush</w>"], [["ha", "d,</w>"], "had,</w>"], [["Nat", "ure</w>"], "Nature</w>"], [["virtu", "e,</w>"], "virtue,</w>"], [["sp", "ri"], "spri"], [["hor", "ses</w>"], "horses</w>"], [["ha", "ll"], "hall"], [["cor", "re"], "corre"], [["mon", "ar"], "monar"], [["sic", "kness</w>"], "sickness</w>"], [["mistres", "s\u2019</w>"], "mistress\u2019</w>"], [["credi", "t</w>"], "credit</w>"], [["s", "er</w>"], "ser</w>"], [["wo", "eful</w>"], "woeful</w>"], [["thi", "ther</w>"], "thither</w>"], [["Coun", "t"], "Count"], [["comman", "d,</w>"], "command,</w>"], [["him", ":</w>"], "him:</w>"], [["ru", "le</w>"], "rule</w>"], [["ble", ";</w>"], "ble;</w>"], [["father", ";</w>"], "father;</w>"], [["sir", "ra"], "sirra"], [["I", "tal"], "Ital"], [["pard", "on.</w>"], "pardon.</w>"], [["pro", "per"], "proper"], [["bra", "w"], "braw"], [["sho", "t</w>"], "shot</w>"], [["te", "dious</w>"], "tedious</w>"], [["na", "m"], "nam"], [["alrea", "dy.</w>"], "already.</w>"], [["sl", "ee"], "slee"], [["trea", "d</w>"], "tread</w>"], [["mar", "r"], "marr"], [["wan", "ts</w>"], "wants</w>"], [["spo", "ken</w>"], "spoken</w>"], [["C", "iti"], "Citi"], [["trump", "et"], "trumpet"], [["dishon", "our</w>"], "dishonour</w>"], [["don", "e?</w>"], "done?</w>"], [["within", ".</w>"], "within.</w>"], [["\u2014", "I</w>"], "\u2014I</w>"], [["spa", "ke</w>"], "spake</w>"], [["\u2019", "d:</w>"], "\u2019d:</w>"], [["ma", "l</w>"], "mal</w>"], [["or", "s.</w>"], "ors.</w>"], [["Le", "pi"], "Lepi"], [["O", "CT"], "OCT"], [["OCT", "AV"], "OCTAV"], [["ce", "-"], "ce-"], [["sacri", "fi"], "sacrifi"], [["retur", "n.</w>"], "return.</w>"], [["da", "in"], "dain"], [["J", "up"], "Jup"], [["Jup", "it"], "Jupit"], [["twel", "ve</w>"], "twelve</w>"], [["di", "sh</w>"], "dish</w>"], [["cu", "p</w>"], "cup</w>"], [["lieu", "ten"], "lieuten"], [["E", "ro"], "Ero"], [["mai", "ds</w>"], "maids</w>"], [["sha", "me.</w>"], "shame.</w>"], [["st", "one</w>"], "stone</w>"], [["AL", "L</w>"], "ALL</w>"], [["CAPTA", "IN.</w>"], "CAPTAIN.</w>"], [["sc", "ore</w>"], "score</w>"], [["loo", "se</w>"], "loose</w>"], [["on", "\u2019t,</w>"],
[...]
